the 6214472
to 3958740
, 3859901
. 3803957
in 3700652
of 3674392
a 3377115
on 2055019
and 2024550
's 1864157
for 1558956
said 1029707
with 856381
at 781763
that 773818
## 746094
as 704008
<unk> 636325
from 632041
an 586845
by 521780
new 491711
has 491497
his 484720
after 476758
tuesday 475181
wednesday 473698
thursday 466446
is 451961
its 442550
president 438015
monday 436007
was 433753
friday 413057
will 389223
u.s. 378676
china 369203
-lrb- 369077
-rrb- 368406
it 365241
over 350941
government 322316
us 318267
two 313680
world 309037
be 297137
`` 297011
#### 288511
their 282947
minister 281515
first 281207
against 280168
have 280131
up 279056
he 262261
'' 259971
percent 257452
more 253352
sunday 246940
police 244625
### 243258
who 242681
saturday 236438
year 230775
were 230141
# 224647
people 222400
here 220816
this 208835
officials 206240
are 200758
says 200350
into 199556
country 196120
million 194408
united 193028
state 188965
south 187226
one 185889
killed 182591
but 180023
reported 179319
out 178275
not 177718
official 176657
former 174258
iraq 172068
foreign 170662
about 167930
three 166233
chinese 164178
international 162129
than 161532
last 160186
been 156854
years 156673
#.# 154802
they 152848
military 150118
#-# 148595
european 148533
states 148131
would 146072
city 145663
group 145410
court 143459
had 142323
down 141383
national 139423
security 139171
week 138452
bank 138363
talks 138361
prices 137303
prime 137219
leader 132889
news 129369
oil 128292
war 126833
dollars 126495
billion 125752
when 125248
cup 125061
which 124130
next 121653
day 121256
trade 120276
top 118881
#.## 118271
$ 117526
off 117400
stock 115403
british 115299
bush 114811
hong 113279
party 112630
kong 112459
stocks 111873
today 111164
economic 110102
announced 109829
her 109557
between 108615
french 108326
second 105713
chief 104992
may 104841
israeli 104696
company 104114
market 103342
close 103341
four 102836
could 101645
israel 101046
american 100461
russian 100162
peace 100016
during 98904
russia 97999
time 97679
visit 96814
or 96595
some 96483
taiwan 96311
higher 95876
according 94388
agency 94287
dollar 93487
open 92530
central 92217
end 91499
palestinian 91212
union 91196
north 91108
s 91037
house 90432
team 90227
india 90017
leaders 89980
-- 89925
home 89529
eu 89119
' 88873
back 88603
pakistan 88382
major 88034
other 87976
un 87845
no 87711
korea 87385
set 86987
death 86647
southern 85743
lower 85212
local 85069
all 85045
nuclear 84896
iran 84878
federal 84731
five 84698
france 84528
month 84427
political 84190
man 83908
german 83057
before 82378
shares 81950
opposition 81858
early 80776
troops 80260
help 79969
points 79965
most 79313
attack 79310
defense 79293
win 79191
york 78884
african 78071
general 78008
east 76533
women 76091
authorities 76013
least 75758
nations 74878
plan 74654
report 74037
called 73682
province 73681
exchange 73398
plans 73093
under 72695
countries 72650
presidential 72513
#,### 72499
closed 71943
army 71864
months 71723
election 71640
deal 70671
northern 70509
league 70051
share 69863
meeting 69702
clinton 69519
africa 69302
australian 69286
west 69285
take 69185
held 69166
rights 68854
forces 68615
six 68488
high 68341
u.n. 68008
ministry 67837
health 67584
killing 67463
iraqi 67324
died 67319
air 67251
final 67226
if 67201
capital 66941
record 66839
elections 66643
britain 66536
since 65886
arrested 65858
him 65817
economy 65748
indian 65435
amid 65252
asian 65125
gold 64693
while 64684
attacks 64600
lead 64044
afghanistan 64007
dead 63796
days 63601
germany 63584
n't 63563
obama 63433
region 63146
public 63101
australia 63056
crisis 62934
- 62817
; 62076
financial 61890
case 61724
office 61685
reports 61454
trial 61413
support 61296
say 61117
night 61010
through 60685
another 60169
following 60083
index 59858
being 59702
nation 59627
_ 59227
men 59144
secretary 59106
despite 59015
left 58984
global 58767
third 58524
ahead 58462
expected 58187
found 58154
power 57958
them 57450
victory 57418
street 57315
won 57287
key 57172
force 57114
charges 56742
injured 56742
made 56586
parliament 56478
workers 56388
largest 56295
media 56238
near 56099
bid 55959
calls 55688
fire 55687
make 55572
campaign 55547
aid 55466
rebels 55281
accused 55112
olympic 55103
service 55038
head 54940
games 54811
beijing 54177
business 54124
senior 54036
##.# 53995
meet 53562
council 53337
part 53263
still 52919
can 52567
agreement 52199
saying 52147
members 51917
soldiers 51862
bomb 51856
europe 51782
sales 51638
george 51611
thousands 51461
strike 51398
border 51383
sri 51374
drug 51360
season 51228
center 51209
##th 51090
work 51028
profit 50957
because 50948
urged 50612
program 50596
wall 50545
ago 50527
##,### 50359
bill 50338
there 50207
gaza 50094
rose 50082
trading 50066
john 49909
white 49749
investors 49638
where 49587
including 49427
wins 49354
law 49002
cooperation 48662
coach 48625
test 48504
late 48503
mexico 48440
development 48404
hit 48139
london 48128
human 48123
markets 47906
republic 47865
turkey 47852
round 47845
children 47631
industry 47344
what 47165
suspected 46893
released 46586
efforts 46557
press 46556
vote 46411
indonesia 46377
spokesman 46300
should 46139
return 46062
protest 45991
washington 45969
violence 45854
nearly 45818
summit 45755
democratic 45697
dealers 45556
italian 45452
car 45375
judge 45220
growth 45186
she 44919
rate 44870
department 44868
###,### 44671
corp. 44648
administration 44513
nato 44473
cut 44377
england 44366
congress 44323
korean 44249
seven 44128
race 44095
way 43920
just 43764
opened 43737
only 43690
premier 43478
fight 43475
tour 43418
companies 43367
gas 43234
commission 43214
start 43142
beat 43091
islamic 42728
conference 42717
morning 42561
: 42234
rise 42217
quarter 41987
prison 41934
spain 41874
philippine 41872
agreed 41819
due 41778
game 41737
america 41681
italy 41605
hold 41589
energy 41469
fell 41247
committee 41220
school 41218
move 41048
leading 40897
get 40852
title 40647
w. 40527
took 40522
system 40506
canada 40390
brazil 40383
across 40351
island 40344
western 40294
eastern 40285
strong 40152
afghan 40092
thai 40013
senate 39993
soccer 39988
life 39846
many 39747
show 39708
food 39698
eight 39436
around 39415
ruling 39384
decision 39270
tokyo 39153
pay 38992
release 38978
giant 38939
match 38857
champion 38817
face 38653
town 38649
shot 38487
ban 38483
investment 38408
woman 38349
zealand 38313
series 38294
budget 38174
interest 38112
vietnam 38027
control 37989
thailand 37965
number 37956
turkish 37948
others 37899
recent 37761
indonesian 37470
past 37432
coast 37387
ties 37358
any 37339
warned 37333
again 37330
told 37210
even 37055
signed 37055
militants 36908
several 36850
baghdad 36850
lanka 36710
latest 36692
charged 36674
free 36635
weekend 36608
possible 36537
now 36426
big 36387
family 36125
airport 36051
urges 36051
biggest 36015
fall 35939
spanish 35928
march 35867
use 35859
inc. 35795
hopes 35786
california 35590
policy 35535
price 35473
increase 35463
among 35460
chairman 35446
organization 35417
weeks 35214
money 34919
zimbabwe 34911
plane 34893
asia 34743
yen 34692
began 34472
hospital 33950
put 33928
discuss 33840
met 33631
play 33525
middle 33367
club 33338
euro 33331
main 33330
hundreds 33322
arab 33321
myanmar 33176
flu 33139
sign 33118
championship 33102
university 33022
long 32971
malaysia 32922
demand 32870
half 32856
alleged 32767
special 32679
egypt 32674
go 32609
suicide 32609
executive 32556
call 32549
fighting 32496
so 32420
labor 32364
lebanon 32298
without 32294
do 32223
rebel 32174
opening 32074
future 32053
tax 31987
palestinians 31965
whether 31948
us$ 31938
give 31921
star 31918
missing 31904
republican 31817
television 31789
rates 31766
rally 31717
muslim 31628
action 31598
further 31585
##.## 31560
ministers 31507
barack 31491
saudi 31298
shanghai 31292
both 31290
philippines 31072
become 31065
led 30979
results 30957
relations 30931
arrived 30913
groups 30895
wounded 30882
newspaper 30882
murder 30868
fund 30828
keep 30820
contract 30751
##-year-old 30551
texas 30511
times 30496
ended 30452
victims 30415
canadian 30389
nigeria 30358
board 30333
boost 30267
football 30181
finance 30143
taking 30095
red 30080
crash 30006
internet 29917
how 29911
sources 29810
run 29804
role 29791
arrest 29764
vice 29653
loss 29600
like 29555
june 29410
supreme 29368
co. 29354
body 29246
illegal 29167
pakistani 29165
terrorist 29115
terrorism 29082
mission 29058
nine 29022
issue 28990
tournament 28979
investigation 28978
joint 28958
###.## 28940
regional 28900
data 28818
continue 28794
gains 28653
production 28571
small 28563
battle 28523
iranian 28416
launched 28388
july 28310
dies 28284
earlier 28248
concerns 28203
de 28157
pm 28154
change 28141
area 28125
trying 28079
sentenced 28046
los 27950
players 27930
scored 27866
kosovo 27849
firm 27828
greek 27794
emergency 27741
wants 27732
king 27723
students 27710
water 27708
earnings 27609
space 27531
net 27514
rival 27497
mark 27488
dutch 27477
bombing 27440
bangladesh 27396
issues 27389
used 27384
fourth 27304
jobs 27235
lawmakers 27216
stop 27203
association 27200
claims 27151
terror 27128
san 27108
offer 27081
outside 27041
hours 27040
step 26955
crimes 26928
pressure 26920
civil 26919
takes 26885
reach 26836
ordered 26829
little 26723
away 26694
much 26684
private 26594
angeles 26551
paris 26521
effort 26505
place 26485
banks 26404
##-## 26373
hamas 26289
mixed 26261
likely 26204
launch 26178
medical 26142
taliban 26096
kills 26080
annual 26071
taipei 25970
fears 25961
rules 25942
building 25925
envoy 25914
armed 25897
stage 25895
right 25859
services 25845
making 25821
failed 25792
young 25772
jordan 25745
continued 25732
deadly 25675
sea 25674
champions 25639
opens 25606
cabinet 25567
moscow 25561
grand 25555
member 25523
lost 25511
buy 25504
tv 25478
probe 25450
ready 25432
threat 25425
justice 25325
went 25289
coalition 25235
film 25203
join 25187
gulf 25138
own 25091
good 25081
greece 25074
best 25028
protests 25026
airlines 24978
dispute 24961
toward 24943
ireland 24906
whose 24888
daily 24829
history 24826
black 24778
leave 24740
process 24702
order 24693
study 24658
information 24635
championships 24577
road 24570
aimed 24570
sent 24558
earthquake 24500
reached 24491
plant 24455
did 24389
swiss 24355
station 24336
seek 24277
confirmed 24260
planned 24244
technology 24232
xinhua 24187
inflation 24166
meets 24162
must 24124
toll 24001
session 23939
named 23932
statement 23879
officer 23784
prosecutors 23783
director 23777
candidate 23764
reform 23760
legal 23753
convicted 23728
olympics 23722
showed 23719
communist 23700
job 23639
michael 23592
soon 23590
kill 23552
mayor 23531
growing 23524
corruption 23514
anniversary 23514
drop 23486
gets 23446
heavy 23444
governor 23422
s. 23395
embassy 23362
post 23347
kenya 23338
same 23290
might 23265
until 23246
officers 23213
egyptian 23187
sudan 23183
begin 23160
mexican 23145
build 23120
church 23103
land 23005
debate 22994
radio 22988
americans 22953
project 22951
behind 22880
experts 22766
dlrs 22754
bosnian 22743
detained 22682
line 22679
train 22665
bus 22645
seeking 22608
host 22579
seeks 22575
total 22527
florida 22526
decided 22497
deputy 22478
you 22403
sports 22387
warns 22379
parties 22365
well 22296
site 22268
cuts 22195
construction 22193
bosnia 22176
cases 22158
profits 22111
nepal 22085
guilty 22065
asked 22021
september 21991
debt 21990
tennis 21974
measures 21938
ii 21937
suspect 21906
democrats 21893
reserve 21886
real 21879
sector 21842
safety 21841
rising 21840
proposed 21779
explosion 21769
fresh 21745
maker 21732
cricket 21640
losses 21622
arms 21558
sanctions 21537
industrial 21537
operation 21534
signs 21504
straight 21493
disease 21465
few 21448
soldier 21410
malaysian 21405
far 21405
czech 21382
brazilian 21362
strip 21270
weapons 21234
problems 21206
level 21126
operations 21124
community 21119
research 21106
wife 21096
argentina 21051
jail 21029
pope 20984
such 20967
flight 20954
ukraine 20951
concern 20908
training 20901
january 20873
better 20852
winning 20818
later 20791
blast 20706
within 20695
find 20662
low 20627
sell 20597
refugees 20591
fired 20584
previous 20566
faces 20546
those 20442
travel 20411
shooting 20394
credit 20393
cuba 20392
warning 20389
send 20332
spending 20321
base 20304
domestic 20263
venezuela 20258
education 20230
almost 20212
japan 20211
field 20190
network 20181
hits 20149
delegation 20146
summer 20134
social 20105
ambassador 20099
computer 20078
working 20042
funds 20015
camp 19997
issued 19966
sharply 19963
along 19936
storm 19934
arafat 19911
negotiations 19875
accident 19868
areas 19857
hk 19842
fuel 19841
affairs 19838
county 19826
try 19825
massive 19810
residents 19809
child 19799
expressed 19756
old 19733
november 19683
search 19659
player 19650
see 19636
georgia 19581
products 19575
david 19555
park 19511
syria 19508
scandal 19505
allow 19496
jewish 19482
saddam 19467
river 19448
airline 19433
list 19396
visiting 19368
parliamentary 19338
afternoon 19304
currency 19286
pacific 19153
slightly 19126
manager 19110
lawyer 19109
charge 19100
ground 19097
hope 19088
consumer 19066
less 19018
exports 19000
nigerian 19000
attempt 18985
son 18940
trip 18940
paul 18925
october 18885
event 18859
large 18840
suspects 18839
gave 18825
drugs 18788
japanese 18773
kashmir 18757
also 18752
remains 18745
rejected 18732
heart 18728
scheduled 18705
period 18704
colombia 18701
forced 18701
current 18670
claimed 18597
suspended 18595
once 18588
rescue 18572
care 18557
come 18548
helped 18548
robert 18542
beats 18529
push 18519
poor 18513
protesters 18510
movement 18504
conflict 18504
provide 18486
worth 18470
denied 18454
orders 18421
ever 18405
poland 18403
fraud 18393
full 18335
came 18334
lebanese 18290
does 18270
sale 18254
sweden 18252
progress 18246
euros 18243
ship 18209
homes 18169
authority 18141
deaths 18127
diplomatic 18111
rises 18088
militant 18069
aids 18054
&amp; 18046
great 18033
music 18033
moving 18032
port 18018
makes 18002
turned 18000
staff 17947
carrying 17925
relief 17925
break 17900
each 17892
dropped 17879
recovery 17874
received 17855
bird 17853
ethnic 17845
cyprus 17827
caused 17822
too 17822
side 17815
taken 17813
bring 17795
leaving 17725
stay 17699
seen 17695
guard 17675
crude 17666
civilians 17660
polls 17602
no. 17597
fans 17595
running 17576
ruled 17566
moved 17562
festival 17531
august 17521
clashes 17520
madrid 17516
putin 17511
uganda 17507
calling 17505
hussein 17502
himself 17501
returned 17499
remain 17465
insurance 17417
activists 17416
draw 17408
controversial 17359
interior 17356
aircraft 17333
traffic 17326
raise 17296
allegedly 17291
deficit 17254
clash 17251
troubled 17249
intelligence 17210
confidence 17208
millions 17200
figures 17177
voters 17156
goal 17133
congo 17108
missile 17084
leaves 17080
increased 17076
improve 17048
sept. 17007
rule 16982
crime 16967
crashed 16956
published 16955
serb 16945
dozens 16943
sets 16937
competition 16906
cancer 16892
resume 16875
given 16871
basketball 16827
falls 16824
challenge 16801
proposal 16800
using 16778
flights 16775
futures 16760
powerful 16753
seized 16711
coming 16703
injury 16677
forward 16652
ending 16649
panel 16601
scientists 16593
prevent 16558
term 16524
shows 16495
already 16489
overnight 16463
settlement 16463
poll 16452
al 16448
kuwait 16436
need 16423
zone 16420
planning 16413
hurricane 16376
december 16375
attend 16363
commander 16358
yuan 16353
criminal 16340
phone 16309
evidence 16285
rice 16283
costs 16265
cities 16247
swedish 16221
front 16200
unit 16187
mass 16181
climate 16149
resolution 16144
jailed 16131
tamil 16118
known 16091
threatened 16088
protect 16075
boston 16065
overseas 16026
navy 16024
statistics 16022
english 16020
huge 16018
blair 15953
allegations 15896
protection 15896
decades 15882
started 15850
form 15829
agree 15816
tests 15811
district 15760
banned 15758
#,###.## 15754
sees 15719
chicago 15699
irish 15686
career 15666
mideast 15656
alliance 15651
going 15641
denies 15633
immigration 15609
finish 15602
tourism 15592
auto 15587
name 15576
prosecutor 15565
beating 15556
yet 15555
attorney 15536
religious 15523
northwest 15513
row 15498
holding 15465
mainland 15464
tried 15414
closes 15409
southeast 15393
analysts 15379
tiger 15375
facing 15370
short 15360
sex 15332
book 15317
positive 15317
ends 15287
shiite 15203
became 15149
i 15148
candidates 15131
supporters 15128
schools 15115
commercial 15094
changes 15085
division 15072
banking 15065
look 15050
prize 15045
serious 15011
promote 15009
highest 15000
situation 14996
track 14992
february 14989
worst 14962
college 14954
parts 14950
polish 14945
begins 14919
cash 14916
serbia 14903
visits 14901
recently 14891
popular 14876
treaty 14866
april 14862
bay 14850
arabia 14834
haiti 14822
claim 14806
light 14803
lawyers 14801
st. 14779
abuse 14777
jerusalem 14763
enough 14724
bodies 14705
bilateral 14674
##-year 14660
weather 14620
offers 14616
catholic 14607
stake 14605
tough 14586
turn 14584
democracy 14583
damage 14576
assembly 14569
rugby 14568
independence 14566
declared 14565
holiday 14546
point 14522
al-qaida 14483
independent 14478
export 14450
century 14418
gunmen 14408
condemned 14397
online 14390
arrives 14382
federation 14377
environmental 14375
zambia 14372
territory 14360
stadium 14355
wo 14345
winter 14341
hotel 14341
lankan 14327
republicans 14311
got 14309
approved 14271
athens 14258
bombings 14257
advance 14254
employees 14245
want 14237
sen. 14230
draft 14230
village 14228
looking 14206
broke 14202
cross 14201
jury 14200
baseball 14199
housing 14198
pct 14189
doctors 14186
teams 14159
lawsuit 14150
management 14118
fifth 14107
supply 14103
evening 14101
medal 14099
closer 14095
movie 14094
cost 14093
moves 14092
prisoners 14091
risk 14069
colombian 14050
leads 14042
student 14033
squad 14020
tony 13994
review 13989
reforms 13978
criticism 13975
boy 13955
treatment 13942
raised 13896
tourists 13886
strikes 13874
defending 13829
unemployment 13828
immigrants 13801
starting 13799
having 13796
passengers 13769
cambodia 13764
mother 13764
firms 13732
friendly 13690
vowed 13689
elected 13684
selling 13663
reaching 13633
steps 13626
mine 13625
darfur 13614
kurdish 13614
microsoft 13613
then 13591
raid 13590
response 13590
pledged 13584
winner 13583
upcoming 13579
mccain 13560
filed 13552
brought 13540
wanted 13524
natural 13520
drive 13517
rejects 13511
cars 13496
reduce 13492
minutes 13487
offered 13472
annan 13464
performance 13460
father 13446
croatia 13443
defeat 13430
giving 13410
returns 13410
focus 13408
majority 13379
conditions 13379
lives 13374
crackdown 13357
vows 13347
surgery 13346
helicopter 13340
striker 13337
passenger 13320
tensions 13317
hand 13308
families 13301
museum 13298
disaster 13294
gives 13294
conservative 13284
loan 13281
fair 13280
target 13278
ceremony 13261
gov. 13259
holds 13246
streets 13237
brown 13230
jet 13159
age 13154
farmers 13124
latin 13112
truck 13109
talk 13094
sought 13086
constitution 13028
portugal 13010
historic 13002
attacked 13002
combat 13001
tehran 12999
names 12984
romania 12976
journalists 12927
clear 12899
demands 12896
journalist 12874
royal 12872
hillary 12859
projects 12850
girl 12847
chavez 12838
legislation 12796
continues 12794
accord 12778
survey 12766
chance 12764
art 12763
####s 12761
green 12755
avoid 12742
crew 12731
counterpart 12729
switzerland 12717
headquarters 12717
act 12696
never 12680
announces 12677
delay 12674
position 12597
goals 12592
citizens 12585
injuring 12581
norway 12580
southwest 12573
involved 12568
source 12551
heads 12539
linked 12535
award 12508
struck 12496
treasury 12481
corporate 12450
buying 12445
video 12442
every 12441
congressional 12441
potential 12438
investigators 12430
northeast 12429
vladimir 12424
austria 12423
separatist 12420
representatives 12419
miss 12417
disputed 12402
access 12381
rain 12343
virus 12321
double 12316
chechnya 12315
questions 12303
atlanta 12283
laws 12261
offensive 12261
rare 12236
securities 12232
closing 12225
above 12217
netherlands 12214
sides 12209
remained 12209
prince 12195
package 12195
expand 12163
sold 12161
halt 12160
getting 12153
stand 12150
secret 12149
sending 12147
pounds 12135
expectations 12125
bonds 12122
voted 12120
leadership 12106
create 12104
gay 12079
super 12074
refugee 12072
enterprises 12069
t 12053
milan 12053
bad 12051
islands 12050
violent 12042
decline 12036
hearing 12023
headed 12020
stars 12019
referendum 12008
hockey 11996
needs 11985
losing 11964
hostage 11957
mobile 11955
bureau 11943
prepared 11926
outbreak 11921
living 11909
expects 11908
chancellor 11899
secretary-general 11892
hard 11888
jersey 11885
goes 11884
pentagon 11870
boat 11869
agriculture 11859
die 11858
###.# 11820
presidency 11798
james 11797
ease 11782
problem 11762
gain 11746
links 11742
humanitarian 11741
bringing 11729
investigating 11729
peru 11728
speech 11724
chile 11712
equipment 11704
sharp 11699
speaker 11694
needed 11692
kenyan 11692
property 11676
forum 11676
sentence 11642
programs 11638
software 11634
output 11626
gore 11626
votes 11625
civilian 11605
weak 11601
falling 11599
hall 11590
block 11590
witnesses 11582
tons 11577
manchester 11554
launches 11547
christmas 11546
williams 11546
transport 11535
quake 11534
raising 11533
request 11518
hollywood 11513
monetary 11513
businesses 11511
davis 11475
jones 11458
serbs 11457
diplomats 11448
awards 11440
yasser 11425
recession 11424
important 11423
strengthen 11414
inside 11413
nba 11405
nationwide 11404
develop 11394
personal 11393
allowed 11391
yugoslavia 11384
cuban 11384
allies 11370
welcomed 11369
together 11368
boeing 11366
save 11362
rivals 11355
driver 11352
steel 11342
web 11339
yeltsin 11335
diplomat 11329
tourist 11325
fed 11308
very 11301
syrian 11296
these 11282
course 11273
jose 11247
decade 11226
forecast 11225
prix 11206
.## 11193
starts 11191
qualifying 11189
environment 11180
played 11171
condemns 11153
blue 11143
agencies 11112
deadline 11106
fbi 11101
finally 11099
developing 11097
records 11094
fm 11093
setting 11079
ivory 11078
extend 11071
supplies 11058
bombs 11056
threats 11055
peacekeeping 11051
figure 11036
rocket 11034
lee 11032
person 11028
legislative 11008
worries 11006
refused 11000
wounding 10983
nobel 10972
takeover 10972
cause 10970
motor 10958
alert 10943
austrian 10933
carrier 10928
injuries 10922
strategy 10912
argentine 10898
pact 10898
ways 10891
success 10872
compared 10868
promised 10855
spread 10853
though 10853
common 10848
shut 10834
scores 10834
coup 10829
hurt 10828
sudanese 10818
classic 10811
guerrillas 10803
playing 10795
struggling 10794
executives 10793
francisco 10783
worldwide 10772
traders 10772
activities 10759
vehicles 10752
plot 10750
renewed 10750
veteran 10749
believed 10744
hands 10743
governments 10733
documents 10730
bin 10728
governing 10724
targets 10717
paid 10669
muslims 10665
considering 10664
assets 10664
posts 10653
imports 10638
bomber 10636
guantanamo 10633
finds 10627
criticized 10625
abbas 10625
somalia 10621
status 10602
politics 10583
retail 10583
belgian 10576
macao 10570
rangers 10564
single 10563
assault 10562
increasing 10551
consider 10551
direct 10527
passed 10527
fiscal 10526
suffered 10521
prominent 10517
jets 10515
crucial 10492
loans 10475
serbian 10458
deep 10445
failure 10445
policies 10434
helping 10431
golf 10378
resolve 10369
parents 10355
surge 10354
appeared 10346
martin 10345
joined 10340
venezuelan 10337
wave 10326
powell 10322
penalty 10322
posted 10322
dialogue 10305
terrorists 10296
blamed 10292
fighters 10283
wto 10277
vietnamese 10269
lift 10265
berlin 10257
sharon 10228
somali 10227
mostly 10220
ford 10205
wake 10201
message 10198
watchdog 10192
population 10186
tanzania 10176
floods 10176
revenue 10173
caribbean 10157
interview 10152
resignation 10135
showing 10130
exploded 10130
chemical 10128
belgium 10115
activist 10111
extended 10108
gathered 10106
leg 10099
finals 10086
bulgaria 10085
chen 10078
chirac 10073
decide 10067
christian 10062
giants 10060
spring 10057
address 10052
youth 10049
ethiopia 10028
freed 10026
afp 10011
exhibition 10009
seriously 9997
two-day 9989
unity 9988
resigned 9983
auction 9980
producer 9973
hoping 9970
patients 9967
ugandan 9963
freedom 9951
levels 9944
planes 9939
queen 9939
commissioner 9932
bankruptcy 9923
peacekeepers 9918
regime 9909
rest 9909
rock 9907
terms 9901
commerce 9897
live 9882
threatens 9875
asks 9864
imf 9864
tribunal 9835
satellite 9825
goods 9812
offering 9812
jackson 9808
result 9803
kept 9800
blow 9794
farm 9792
owner 9790
charles 9785
soviet 9782
ag 9776
danish 9775
chechen 9768
jakarta 9767
ensure 9760
spent 9756
vehicle 9756
below 9750
pilot 9743
voting 9731
airways 9730
withdrawal 9729
daughter 9724
angola 9724
captain 9717
beach 9715
plc 9715
cargo 9701
connection 9695
sarkozy 9669
immediate 9659
aviation 9657
communications 9644
let 9644
expansion 9628
agents 9622
senator 9616
involving 9610
defeated 9587
pledges 9586
resort 9582
steady 9578
discovered 9555
welcomes 9551
sars 9538
roman 9536
dow 9524
concerned 9514
denmark 9509
doctor 9509
ukrainian 9506
greater 9503
dismissed 9492
cold 9471
beginning 9470
baby 9466
powers 9465
musharraf 9457
investigate 9455
assistance 9449
johnson 9447
libya 9442
unions 9432
lines 9429
lawmaker 9422
blasts 9394
unveiled 9390
fear 9387
van 9363
richard 9362
saw 9361
changed 9357
motors 9353
institute 9351
speed 9347
surprise 9344
shuttle 9330
delayed 9313
tens 9313
science 9312
pulled 9309
based 9302
consecutive 9290
inquiry 9285
hezbollah 9277
trafficking 9264
primary 9260
tobacco 9248
looks 9246
qualifier 9246
ousted 9244
sydney 9238
debut 9233
critical 9223
poverty 9219
opec 9217
bond 9212
fifa 9200
newly 9188
accept 9187
smuggling 9185
factory 9178
finland 9177
detention 9171
separate 9169
becoming 9167
coal 9165
abroad 9163
practice 9153
cultural 9148
tsunami 9132
resources 9128
jump 9122
spy 9122
telecom 9120
impact 9119
telecommunications 9118
arsenal 9104
convention 9095
completed 9091
reporting 9087
average 9074
ocean 9073
stability 9072
replace 9071
mubarak 9065
dprk 9065
announce 9059
pace 9048
preparing 9048
cell 9046
assassination 9026
taiwanese 9019
question 9018
spot 9017
highway 9016
agent 9012
backs 9011
swine 9011
constitutional 9010
iraqis 9009
customs 9003
rwanda 9000
systems 8996
hungary 8995
postponed 8992
income 8986
female 8984
telephone 8983
operating 8983
runs 8978
demanded 8976
advanced 8963
gun 8958
pipeline 8951
matches 8950
lack 8950
barcelona 8946
custody 8944
politicians 8934
failing 8931
aboard 8930
per 8920
currencies 8919
your 8914
masters 8913
venture 8911
tibet 8908
kim 8907
ounce 8907
slow 8906
##,###.## 8899
date 8893
organizers 8885
receive 8880
letter 8880
flood 8879
room 8873
blood 8862
safe 8861
mining 8851
waters 8848
lake 8844
actor 8843
enter 8839
mountain 8839
israelis 8836
neighboring 8825
regulators 8823
norwegian 8816
eve 8814
severe 8814
causing 8802
barrel 8800
couple 8796
interim 8783
yugoslav 8783
tropical 8768
sites 8768
li 8759
ask 8758
welcome 8748
atlantic 8745
memorial 8741
traditional 8731
invest 8731
clients 8730
landmark 8721
faced 8721
marine 8702
fires 8701
dozen 8697
romanian 8696
researchers 8695
defends 8693
magazine 8690
committed 8685
contracts 8684
boris 8682
genocide 8682
themselves 8673
forest 8669
ice 8667
state-run 8667
prepare 8666
milosevic 8663
drops 8662
rural 8657
bob 8655
albanian 8647
semifinals 8645
resign 8644
mike 8644
stories 8643
outlook 8640
continuing 8637
arrests 8630
husband 8626
itself 8616
longer 8607
nasa 8599
boycott 8590
added 8586
plunged 8585
benefits 8582
promises 8580
threatening 8575
detroit 8573
peter 8572
honor 8569
timor 8565
mahmoud 8560
northeastern 8545
vatican 8533
settle 8533
doping 8532
raises 8531
asean 8529
channel 8524
electricity 8523
three-day 8517
sexual 8508
critics 8507
pleaded 8497
hostages 8485
peaceful 8480
merger 8478
guards 8476
comes 8472
we 8467
overall 8455
yemen 8453
kofi 8451
quit 8443
uk 8440
spend 8440
jacques 8437
square 8435
driving 8428
struggle 8426
solution 8415
shenzhen 8413
canceled 8406
cambodian 8402
cia 8398
la 8392
withdraw 8376
delays 8375
marathon 8374
killer 8372
membership 8370
aide 8368
suit 8360
ali 8359
arrive 8352
reaches 8347
offices 8346
chelsea 8338
complete 8334
rome 8330
organizations 8316
citing 8304
ltd. 8302
survivors 8298
flat 8298
hugo 8290
agenda 8283
arizona 8273
truce 8272
kerry 8270
caught 8265
gop 8259
radical 8258
ten 8258
electoral 8257
belarus 8253
singer 8253
provincial 8249
laden 8247
culture 8230
destroyed 8227
urge 8225
sixth 8224
portuguese 8220
confident 8215
autonomous 8211
cox 8207
divided 8191
fast 8187
involvement 8181
carlos 8163
policemen 8161
railway 8159
funding 8152
transfer 8145
consumers 8142
fishing 8133
jordanian 8132
seat 8119
successful 8111
one-day 8110
formally 8108
manufacturing 8107
quickly 8100
estate 8094
heat 8092
cease-fire 8088
moderate 8081
william 8078
demanding 8076
midfielder 8076
killings 8073
manhattan 8067
events 8066
lose 8063
houston 8061
ongoing 8059
? 8056
commonwealth 8055
marks 8053
scotland 8051
agrees 8049
##-# 8046
miles 8042
testing 8040
ecuador 8035
love 8033
fighter 8030
seoul 8027
accuses 8013
holy 8011
northwestern 8007
restrictions 8003
value 8003
pilots 8001
grant 7995
watch 7993
rallied 7981
mosque 7967
officially 7963
brother 7960
admitted 7955
grew 7955
#th 7954
remote 7953
plants 7953
pledge 7952
nomination 7950
trust 7947
expert 7944
croatian 7936
although 7936
ancient 7919
ring 7915
fellow 7913
landing 7909
cocaine 7907
carry 7906
table 7897
funeral 7896
stronger 7896
cleric 7888
euro# 7882
el 7881
miami 7856
angry 7841
jan. 7836
celebrate 7833
details 7827
tie 7826
.# 7816
airbus 7815
entry 7811
indicted 7802
built 7800
sport 7799
taxes 7794
yankees 7786
bridge 7776
mugabe 7771
agricultural 7770
berlusconi 7765
cable 7763
quarterfinals 7762
massacre 7758
benchmark 7757
smith 7756
lifted 7752
defend 7749
formula 7743
signing 7732
strategic 7732
tries 7731
macedonia 7731
allowing 7714
pass 7712
thomas 7702
carried 7693
curb 7687
restore 7683
technical 7678
abu 7670
instead 7667
netanyahu 7662
handed 7661
standing 7661
pull 7656
kabul 7651
spokeswoman 7639
meters 7638
defended 7622
link 7616
boss 7614
retired 7611
different 7608
abortion 7605
zambian 7605
apparently 7605
abdullah 7604
urging 7604
crashes 7586
bloc 7585
standards 7576
rail 7571
amnesty 7569
streak 7567
famous 7567
uefa 7567
militia 7566
athletes 7563
state-owned 7561
finished 7540
responsible 7537
jr. 7534
opponents 7533
twice 7532
rodham 7530
returning 7510
bowl 7503
tells 7502
reserves 7502
exercise 7501
politician 7499
dubai 7496
thanks 7495
chiefs 7494
comments 7477
nazi 7476
marriage 7470
racing 7467
electronics 7461
upset 7450
increasingly 7445
snow 7445
nt$ 7442
al-qaeda 7438
described 7430
warming 7428
feared 7428
confirms 7427
petroleum 7423
rebound 7423
carolina 7417
deals 7415
mln 7414
wild 7414
commitment 7412
begun 7411
resistance 7410
entered 7406
bangkok 7405
stepped 7405
retirement 7401
relatives 7399
qatar 7396
valley 7396
oct. 7395
judicial 7394
designed 7389
representative 7386
beef 7385
nicolas 7377
sends 7375
hang 7362
cleared 7351
presence 7345
increases 7344
effect 7344
golden 7343
towards 7341
palace 7339
bailout 7333
sierra 7333
marked 7333
resigns 7326
able 7319
electric 7319
worker 7318
product 7317
southeastern 7314
liverpool 7309
maintain 7307
contest 7306
sparked 7305
downtown 7296
rockets 7295
produce 7292
colin 7291
edge 7290
defender 7289
tom 7287
range 7280
partner 7251
society 7250
asylum 7249
rains 7247
virginia 7247
split 7244
unrest 7242
eyes 7241
exchanges 7238
stopped 7224
zimbabwean 7219
partnership 7215
ceasefire 7215
teachers 7208
senators 7206
massachusetts 7203
often 7194
manila 7189
slain 7186
suffering 7181
investor 7179
owners 7179
cutting 7177
story 7174
establish 7166
staged 7161
georgian 7156
crown 7149
missiles 7148
challenges 7145
liberation 7145
victim 7145
responsibility 7141
minority 7140
dangerous 7135
strongly 7133
woods 7130
backed 7127
foundation 7126
seize 7124
heading 7122
preliminary 7112
colorado 7108
algeria 7107
measure 7106
hot 7106
demonstrators 7106
illegally 7103
gained 7099
crowd 7091
neighbors 7085
additional 7084
operator 7084
philadelphia 7084
stations 7083
friends 7082
thought 7079
burundi 7076
weekly 7073
import 7072
pushed 7071
toyota 7067
tribal 7066
clean 7059
stores 7058
foreigners 7054
embattled 7053
dec. 7048
awarded 7045
tight 7039
know 7031
gm 7028
internal 7028
accusing 7022
compensation 7022
atomic 7015
rwandan 7013
knee 7013
putting 7012
% 7007
initial 7005
turns 7004
steve 6996
traded 6995
cycling 6993
casualties 6991
indies 6977
puts 6976
presidents 6976
slump 6975
nfl 6971
bail 6966
incident 6958
guangdong 6955
books 6945
improved 6944
emirates 6943
unchanged 6938
overhaul 6938
imposed 6937
quality 6936
loses 6928
limited 6926
keeps 6925
works 6922
secure 6915
cairo 6914
fined 6913
volatile 6912
route 6910
proposals 6908
possibility 6906
euro### 6904
#-year-old 6898
pick 6897
breaks 6895
jiang 6894
estimated 6893
condition 6893
ailing 6892
reportedly 6890
mozambique 6885
immediately 6882
hill 6876
conduct 6876
industries 6876
significant 6875
insurgents 6873
speculation 6873
bulgarian 6864
costa 6861
serve 6860
surplus 6858
grow 6846
ethiopian 6843
command 6843
quoted 6842
lowest 6832
mortgage 6827
cast 6818
houses 6812
euro## 6810
gmt 6808
present 6806
broken 6803
revealed 6800
fine 6800
flooding 6800
hu 6799
regions 6796
claiming 6788
calm 6785
buildings 6782
strength 6777
turmoil 6771
rio 6765
purchase 6763
store 6762
corporation 6762
sa 6760
riot 6756
kennedy 6754
attention 6753
personnel 6750
founder 6750
sweeping 6749
prospects 6747
alive 6746
drivers 6736
optimism 6734
fashion 6733
boxing 6731
hailed 6730
customers 6729
naval 6714
recovered 6713
ceo 6708
dallas 6708
gang 6707
earth 6702
approval 6701
marking 6701
nov. 6701
granted 6699
girls 6697
legislature 6696
leone 6693
considered 6688
keeping 6688
backing 6685
seconds 6684
albania 6682
compromise 6681
tiny 6680
gates 6679
#.### 6675
positions 6675
gasoline 6674
eye 6667
karzai 6663
businessman 6661
google 6654
standoff 6651
mandela 6649
created 6645
visitors 6644
extra 6630
developed 6626
kansas 6619
southwestern 6618
blocked 6613
meetings 6609
enforcement 6600
birthday 6600
judges 6600
pollution 6599
athletics 6588
appeal 6586
academy 6586
cooperate 6585
jobless 6582
partners 6581
playoff 6578
seed 6578
tackle 6570
surged 6566
louis 6564
democrat 6563
card 6553
author 6552
patrol 6547
numbers 6545
winds 6538
troop 6534
delta 6530
raids 6522
comeback 6521
believe 6520
adding 6517
#q 6514
swept 6513
explosives 6512
fatal 6507
trouble 6506
adviser 6502
website 6497
swimming 6492
bangladeshi 6484
sentiment 6482
leftist 6477
administrative 6475
howard 6473
remaining 6470
castro 6469
birth 6467
dodgers 6461
schedule 6452
remarks 6448
extradition 6445
cypriot 6440
witness 6437
writer 6433
re-election 6432
morocco 6432
sox 6430
cpc 6429
activity 6426
supports 6424
quick 6424
gordon 6422
ally 6419
sentences 6416
finnish 6414
probably 6413
resumed 6409
standard 6408
hunger 6402
improving 6397
stable 6396
agreements 6396
finding 6388
ohio 6384
joining 6381
nepali 6381
task 6380
slams 6380
throughout 6378
spill 6377
image 6372
alexander 6369
joe 6367
chain 6365
newspapers 6361
limit 6360
joseph 6356
welfare 6354
charity 6351
announcement 6345
guinea 6344
complex 6343
midday 6342
profit-taking 6341
boosted 6340
uranium 6339
president-elect 6335
passes 6335
coastal 6333
seattle 6331
why 6326
related 6326
accusations 6325
think 6323
box 6321
holocaust 6320
inspectors 6313
contributed 6310
lakers 6307
transportation 6304
unless 6293
era 6290
###.##-### 6290
sun 6289
adopted 6289
wales 6289
fails 6285
favorite 6277
willing 6274
automaker 6268
view 6268
digital 6265
aims 6260
flying 6260
nothing 6256
bills 6254
modern 6254
acting 6246
belgrade 6243
negotiators 6242
my 6232
dole 6232
homeland 6227
reconstruction 6225
us-led 6222
roadside 6213
stolen 6211
dissident 6208
shopping 6204
evacuated 6203
discovery 6202
investments 6197
animal 6197
ski 6195
plunge 6188
turning 6188
chilean 6186
differences 6181
insisted 6174
rather 6173
sweep 6172
pushing 6168
edged 6166
scale 6165
declined 6165
tension 6161
mount 6154
initiative 6154
actress 6151
uae 6150
lady 6148
algerian 6142
rich 6140
forcing 6140
e. 6139
bloody 6138
breaking 6136
long-term 6133
ships 6131
junta 6130
hails 6123
sunni 6120
mutual 6119
simpson 6117
account 6114
remove 6114
damaged 6106
placed 6104
hunt 6101
suspension 6099
advertising 6098
associated 6096
pair 6096
devastating 6096
unlikely 6093
sarajevo 6093
choice 6089
deutsche 6085
kazakhstan 6081
difficult 6080
u.s.-led 6073
fierce 6071
stem 6070
acquire 6070
tigers 6070
facilities 6070
cheney 6065
jumped 6062
worked 6055
cover 6046
class 6038
celebrated 6035
buried 6028
recall 6026
aceh 6024
fields 6023
professional 6022
friend 6021
visited 6019
voice 6019
luxury 6019
prepares 6019
gov 6018
scheme 6018
hopeful 6017
merkel 6013
concluded 6012
breakaway 6009
benjamin 6007
doing 6006
fate 6005
bp 6005
include 5995
gen. 5993
captured 5987
express 5978
disney 5973
ran 5973
becomes 5968
liberia 5958
denver 5954
reporter 5952
priest 5948
questioned 5943
opener 5939
broadcast 5932
jews 5931
munich 5931
quiet 5929
optimistic 5920
aside 5918
peninsula 5902
revive 5901
suspicion 5899
kind 5898
available 5896
ca 5886
certain 5885
execution 5883
highly 5882
seng 5881
bitter 5878
antonio 5875
unprecedented 5875
facility 5871
pervez 5871
ariel 5870
b 5870
serving 5869
bhutto 5862
favor 5854
hour 5852
institutions 5852
recover 5851
invasion 5850
detainees 5850
flag 5848
reporters 5844
volleyball 5843
relationship 5842
disarmament 5832
junior 5832
shareholders 5828
municipal 5827
heroin 5827
waste 5825
p.m. 5821
policeman 5818
reconciliation 5817
threaten 5809
providing 5806
drew 5803
desert 5801
units 5798
chances 5797
torture 5796
joins 5796
something 5794
lay 5792
determine 5791
controversy 5790
stimulus 5787
doubt 5783
fly 5782
hike 5778
promise 5777
drought 5777
diego 5777
helicopters 5772
onto 5771
cautious 5771
pop 5769
firefighters 5766
rescued 5765
gunman 5761
pole 5761
compete 5760
permanent 5760
extremists 5758
removed 5757
influence 5752
criticizes 5751
chris 5751
third-quarter 5748
interests 5747
katrina 5745
fatah 5745
worried 5742
pleads 5735
fidel 5733
seventh 5731
hungarian 5731
nelson 5724
stalled 5722
aug. 5721
praised 5710
widespread 5706
istanbul 5705
producers 5703
marines 5702
kingdom 5701
schroeder 5700
hospitalized 5700
convoy 5700
risks 5697
restructuring 5696
beyond 5696
anger 5695
brief 5693
presented 5692
appeals 5691
electronic 5689
donald 5683
##-day 5683
pirates 5682
heard 5679
fox 5677
###th 5672
lot 5669
teenager 5655
accounting 5651
chrysler 5649
striking 5647
cruise 5647
slammed 5646
violations 5645
predicted 5641
doubles 5638
heavily 5631
ferry 5628
benefit 5627
billions 5623
hoped 5623
basque 5622
races 5620
wing 5619
discussed 5617
accepted 5616
bourse 5612
proposes 5612
medicine 5611
singles 5610
appointed 5610
osama 5609
juan 5606
collision 5605
largely 5605
concert 5605
advances 5598
extends 5597
model 5597
language 5595
bans 5592
easy 5591
slide 5589
triggered 5587
vaccine 5585
##-month 5580
expect 5578
airports 5574
wimbledon 5572
ahmadinejad 5571
causes 5570
fish 5570
fail 5570
bar 5567
islam 5566
slovakia 5564
entertainment 5557
nhl 5554
hosni 5552
suggested 5551
crack 5548
verdict 5540
gone 5539
makers 5539
eurozone 5538
bali 5536
rallies 5536
seats 5533
plays 5527
monitor 5518
theater 5514
monitoring 5514
veterans 5512
visa 5507
our 5507
amount 5502
editor 5497
` 5495
kuwaiti 5495
file 5493
explosions 5492
invitation 5491
respect 5488
minute 5486
firing 5485
urban 5484
poised 5482
angolan 5458
kremlin 5455
minor 5454
coverage 5451
collapse 5445
executed 5443
brothers 5442
socialist 5441
anti-government 5440
camps 5436
islamist 5436
creating 5436
networks 5432
prosecution 5431
provided 5429
oscar 5428
riots 5426
broad 5420
actions 5418
miners 5417
orleans 5416
pga 5416
ghana 5415
draws 5413
roads 5407
revolution 5407
weaker 5406
subway 5402
ehud 5402
a\/h#n# 5399
condoleezza 5397
pyongyang 5394
shift 5394
sank 5392
looked 5392
silver 5390
stood 5390
restaurant 5389
damages 5387
files 5387
mets 5385
nkorea 5384
handling 5381
wide 5379
guerrilla 5378
bolivia 5376
check 5361
enhance 5360
warnings 5358
suspend 5358
bln 5357
ioc 5356
nominee 5356
add 5350
payments 5344
fully 5344
benedict 5343
sworn 5342
jack 5341
financing 5338
spying 5336
wage 5334
reduced 5333
threw 5331
typhoon 5329
idea 5328
offshore 5328
wang 5327
daniel 5326
scene 5326
hero 5325
attempts 5325
testimony 5324
crossing 5322
fled 5316
mounting 5312
nationals 5310
lama 5310
destruction 5310
trophy 5309
bought 5308
slobodan 5307
fiji 5305
courts 5305
organized 5304
soaring 5301
done 5300
fugitive 5299
shui-bian 5297
means 5293
ill 5291
puerto 5291
libyan 5286
helps 5286
limits 5284
opera 5282
invited 5281
formed 5281
chips 5280
slalom 5276
arm 5276
reject 5275
teacher 5270
pension 5268
clashed 5266
feb. 5263
recorded 5257
borders 5254
xvi 5252
version 5252
olmert 5247
dramatic 5245
dr. 5244
computers 5243
fought 5240
kyi 5237
scottish 5236
active 5234
slowdown 5231
villages 5225
declaration 5223
federer 5222
waiting 5218
neighborhood 5215
traveling 5213
kilometers 5212
display 5209
formal 5209
plea 5208
hosts 5207
stance 5207
bayern 5195
hospitals 5194
tell 5184
employment 5184
blame 5171
easing 5168
two-year 5166
suu 5166
innings 5166
tech 5157
observers 5156
follow 5156
emerged 5155
delegates 5154
words 5153
showdown 5152
engine 5152
wind 5151
scientific 5151
accounts 5148
places 5146
longtime 5146
roger 5145
hiv 5130
regulations 5129
frank 5126
giuliani 5125
rocked 5124
angels 5118
phoenix 5117
yemeni 5116
impose 5113
cow 5111
plotting 5111
tested 5108
ahmed 5107
n. 5105
hear 5104
established 5100
panama 5100
hitting 5096
participate 5095
kicked 5092
kevin 5090
demonstration 5090
first-quarter 5088
liberal 5080
fame 5080
azerbaijan 5078
views 5078
apparent 5071
###m 5065
extension 5064
ben 5063
expanding 5062
gdp 5062
minnesota 5059
lending 5057
winners 5057
zemin 5054
vast 5054
homeless 5053
professor 5052
dick 5051
patrick 5047
factions 5043
determined 5040
fc 5038
wheat 5029
sao 5027
offset 5026
illness 5024
delhi 5024
rescuers 5023
enron 5022
inter 5020
inmates 5020
potentially 5017
provinces 5015
medals 5013
aides 5011
princess 5010
grenade 5006
moment 5006
wounds 5001
boys 5001
danger 4996
complaints 4995
towns 4993
restive 4993
jintao 4993
slaying 4992
recovering 4990
picked 4989
five-year 4988
believes 4985
shell 4984
shortage 4983
dream 4983
unveils 4983
thing 4979
ninth 4978
eighth 4977
stranded 4976
registered 4976
widely 4976
brussels 4975
warn 4974
intended 4969
trucks 4969
parade 4969
foot 4966
chip 4965
deliver 4965
kings 4963
similar 4962
gathering 4959
're 4954
promoting 4954
freeze 4953
temporary 4952
accidents 4947
jim 4944
entering 4943
toronto 4942
appealed 4940
various 4937
especially 4936
abuses 4935
advisory 4932
hamid 4931
opposed 4930
selected 4928
controls 4925
flee 4923
henry 4919
exit 4917
generation 4916
mad 4912
kmt 4911
continent 4909
successfully 4909
indians 4903
singapore 4900
utility 4899
declines 4896
#:## 4894
landslide 4889
questioning 4888
taylor 4887
emissions 4887
trillion 4884
gather 4884
prompted 4883
dalai 4879
refuses 4877
paying 4877
beirut 4873
clubs 4872
rumsfeld 4869
effective 4869
preparations 4866
reiterated 4864
woes 4863
wrong 4858
bahrain 4858
tanker 4857
produced 4857
guns 4855
regular 4855
band 4854
bombers 4852
blew 4851
assistant 4849
deployment 4846
fernando 4846
donors 4840
path 4839
oklahoma 4837
frankfurt 4835
elderly 4832
negotiator 4826
prisoner 4823
promising 4821
sprint 4821
coffee 4820
high-tech 4820
mediterranean 4817
tel 4817
morgan 4816
feet 4816
considers 4816
tibetan 4816
kids 4814
chaos 4814
scott 4811
battles 4810
alan 4810
closure 4807
emerging 4806
asking 4806
attempted 4803
upper 4799
seems 4798
door 4795
holdings 4794
warplanes 4792
arts 4791
legislators 4791
celebrations 4789
things 4789
closely 4786
abandoned 4785
identified 4781
branch 4781
tanks 4779
brings 4779
delivered 4775
supporting 4771
admits 4769
subsidiary 4769
sue 4768
protesting 4765
shots 4764
phase 4761
aviv 4761
mail 4760
previously 4759
citizen 4758
four-day 4758
slam 4757
tanzanian 4756
brain 4755
appear 4753
bars 4753
string 4751
centers 4751
teen 4750
flew 4749
shortly 4748
trials 4747
carter 4746
asia-pacific 4745
doubts 4743
quarterly 4743
introduced 4740
tampa 4735
high-level 4734
war-torn 4732
experience 4730
tied 4727
launching 4725
infrastructure 4723
#st 4722
balance 4721
material 4720
kyrgyzstan 4719
dpp 4715
peruvian 4714
marketing 4710
silvio 4706
normal 4705
always 4701
tense 4699
wait 4696
alaska 4695
modest 4692
tribute 4691
temporarily 4689
marched 4686
fastest 4680
ballot 4679
drama 4678
j. 4669
bishop 4667
michigan 4667
dictator 4657
bases 4657
options 4653
grave 4649
smoking 4648
guatemala 4647
collection 4646
affected 4645
villagers 4643
####-#### 4642
adopt 4642
broadcasting 4640
users 4638
bolster 4637
aim 4636
ratings 4636
demonstrations 4636
'll 4636
racial 4632
dealing 4631
injures 4627
shipping 4625
elite 4622
rep. 4622
lewis 4621
fleet 4619
possibly 4618
migrants 4616
slipped 4614
sure 4611
##-hour 4609
moslem 4608
voiced 4607
hunting 4607
introduce 4606
scientist 4605
receiving 4605
creation 4603
premiership 4600
christopher 4599
#nd 4598
harry 4598
honduras 4596
equity 4596
epidemic 4594
elizabeth 4593
appears 4592
ticket 4592
tea 4592
films 4588
contact 4587
movies 4586
kilograms 4586
boosting 4586
haitian 4577
negative 4577
targeting 4574
npc 4571
score 4569
cowboys 4569
mainly 4566
zaire 4562
dog 4561
chad 4560
economies 4560
entire 4556
govt 4556
advantage 4547
columbia 4546
dominican 4546
anatolia 4546
materials 4545
malawi 4543
gross 4542
ac 4540
wireless 4537
items 4534
bigger 4533
hindu 4533
sony 4532
immigrant 4530
lord 4524
climbed 4524
vision 4523
targeted 4522
establishment 4518
opportunity 4511
motion 4510
disputes 4509
rating 4509
searching 4505
expanded 4505
included 4500
manufacturer 4497
grows 4497
solid 4496
tougher 4495
eased 4489
solve 4489
second-quarter 4480
changing 4480
denounced 4479
thaksin 4478
participation 4477
antitrust 4474
unbeaten 4474
volume 4469
murdering 4469
separatists 4468
extending 4467
conservatives 4463
highs 4463
composite 4462
fees 4459
uncertainty 4453
word 4453
f. 4453
leak 4451
shock 4450
mines 4449
vegas 4449
shootout 4448
oldest 4447
suspends 4446
lifts 4443
mountains 4439
a.m. 4436
disabled 4432
employee 4428
effects 4426
relay 4425
plo 4425
briefly 4424
bids 4422
complaint 4420
heavyweight 4418
legislator 4418
breakthrough 4416
weighted 4411
soared 4411
ballots 4405
walk 4404
three-year 4404
volcano 4403
pound 4401
scare 4399
acknowledged 4398
mongolia 4397
individual 4396
contain 4394
cleveland 4393
collided 4392
trail 4390
basis 4389
chosen 4389
cards 4388
opinion 4388
tear 4388
interfax 4386
uruguay 4385
schwarzenegger 4383
johannesburg 4382
false 4380
crowded 4376
priority 4374
sued 4367
intel 4364
las 4362
note 4361
grain 4359
picture 4358
seemed 4358
subsidies 4357
combined 4353
prove 4353
praises 4352
territories 4352
battered 4351
andy 4350
fourth-quarter 4349
fishermen 4345
artist 4344
skating 4344
jointly 4342
m. 4341
tops 4341
settlements 4338
chase 4338
brokers 4334
alberto 4334
tim 4329
stressed 4325
necessary 4322
drc 4322
brian 4322
upbeat 4320
transit 4319
ball 4318
fan 4317
downturn 4317
wedding 4314
upon 4311
laid 4311
ambush 4310
native 4309
familiar 4309
bear 4307
####-## 4303
all-star 4302
trains 4298
infected 4298
buys 4295
exercises 4294
ambitious 4291
served 4289
nearby 4288
billionaire 4287
mandate 4287
duty 4285
balkan 4284
animals 4282
quits 4279
beaten 4274
fake 4272
lifting 4270
busy 4267
momentum 4267
russians 4267
matter 4266
da 4264
scoreboard 4260
discussions 4258
walked 4256
managers 4256
deployed 4255
cyclone 4254
peres 4249
yesterday 4248
testify 4246
fever 4245
charter 4245
bat 4241
orthodox 4241
niger 4241
globe 4240
rouge 4236
erupted 4233
stands 4230
earned 4229
calif. 4229
species 4229
slowing 4229
astronauts 4228
protested 4221
struggled 4212
blames 4208
overcome 4208
negotiate 4204
rush 4203
publisher 4201
vessel 4200
strain 4200
veto 4200
sound 4199
windows 4197
pursue 4196
ability 4196
monthly 4190
watched 4189
stephen 4189
studies 4187
rand 4187
perfect 4187
tycoon 4185
practices 4182
exile 4180
quarterback 4177
drawing 4177
underground 4177
receives 4176
mumbai 4173
unknown 4171
everything 4171
memory 4170
unusual 4169
lithuania 4169
ira 4167
conviction 4165
grants 4164
census 4163
violating 4162
negotiating 4161
atp 4161
gloria 4158
airliner 4156
rica 4154
adb 4154
successor 4153
uzbekistan 4151
reactor 4149
miller 4147
bombay 4146
born 4145
medvedev 4136
stanley 4133
armstrong 4133
importance 4133
slovenia 4131
geneva 4127
sues 4126
allows 4125
revolutionary 4123
directors 4120
defensive 4120
jazz 4118
ad 4116
drove 4116
alex 4116
bribery 4115
theft 4115
retailer 4114
wine 4113
##st 4113
pitcher 4110
prospect 4110
elect 4110
skorea 4103
owned 4103
reality 4102
attended 4102
rebuild 4101
burned 4099
sensitive 4098
wen 4096
revised 4090
design 4087
storms 4087
reasons 4087
warner 4087
paramilitary 4085
sichuan 4083
releases 4083
luis 4079
mohammed 4076
robbery 4076
manuel 4075
inspection 4073
khmer 4073
estimates 4072
insurgency 4070
nets 4065
kick 4060
poultry 4060
suggests 4058
pro-democracy 4057
anthrax 4057
lineup 4055
hebron 4055
casino 4054
conspiracy 4053
reduction 4052
arroyo 4052
celebration 4051
semifinal 4051
tunnel 4051
attending 4048
landed 4041
tank 4041
counter 4038
travelers 4033
vice-premier 4033
rumors 4032
surrounding 4032
warrant 4031
nationalist 4030
communities 4030
answer 4029
barred 4029
compound 4027
rookie 4026
pharmaceutical 4025
occupied 4025
tickets 4024
smaller 4024
dominated 4021
setback 4020
ranks 4019
shook 4015
newcastle 4014
twin 4013
vow 4012
bundesliga 4010
sells 4007
youths 4007
nbc 4007
milk 4004
manufacturers 4000
implementation 4000
survived 3996
ride 3991
baltic 3989
code 3988
xinjiang 3984
pain 3982
viktor 3981
metal 3980
roc 3977
revenues 3975
four-year 3968
gambling 3966
deadlock 3964
whom 3964
iron 3958
paulo 3955
omar 3955
mystery 3954
comprehensive 3951
aung 3950
toxic 3949
implement 3945
floor 3945
acquisition 3945
patient 3941
meant 3941
anti-terrorism 3941
worlds 3940
anti-terror 3939
ma 3938
downhill 3938
juventus 3934
refusing 3934
reopen 3933
jamaica 3931
feature 3931
moroccan 3927
extremist 3926
settlers 3924
conducted 3923
perhaps 3921
count 3920
pittsburgh 3918
evacuation 3918
palm 3916
struggles 3915
refinery 3912
resumes 3909
vienna 3909
legend 3908
surrender 3908
prevention 3904
lawsuits 3904
wars 3904
sacked 3901
dance 3900
karachi 3899
rubber 3898
watching 3898
santa 3897
document 3896
intense 3896
repair 3895
acts 3894
g# 3894
retire 3894
businessmen 3892
yellow 3891
choose 3890
battling 3889
honors 3888
prompting 3888
attract 3887
right-wing 3887
murdered 3886
understanding 3885
phones 3885
teenage 3883
iowa 3881
marijuana 3879
hotels 3879
intervention 3877
influential 3876
testified 3875
learn 3870
magic 3869
angela 3869
stronghold 3867
endangered 3866
phil 3862
madagascar 3861
apartment 3857
guarantee 3855
absence 3853
sheikh 3851
harvard 3850
goalkeeper 3848
recalled 3847
wildlife 3845
temple 3844
wearing 3844
illinois 3841
consortium 3838
journal 3836
basic 3835
twins 3835
persons 3833
packed 3831
missed 3829
reducing 3828
style 3827
pulls 3826
kaohsiung 3824
filipino 3822
first-round 3822
opponent 3821
expelled 3820
engineering 3819
challenger 3818
mind 3817
universities 3816
promotion 3812
resumption 3812
cbs 3809
oppose 3808
innocent 3807
bidding 3807
montenegro 3804
outgoing 3802
cool 3800
strait 3799
toss 3798
playoffs 3798
reason 3793
song 3792
fleeing 3789
moon 3789
rocks 3788
copa 3788
representing 3788
organisation 3785
declares 3783
trend 3782
medicare 3782
inning 3781
integration 3778
arrival 3777
passing 3775
pullout 3774
petersburg 3774
meat 3772
narrow 3772
estonia 3772
gerhard 3768
raided 3766
anyone 3765
indicated 3763
fewer 3762
followed 3760
focused 3760
artillery 3758
talking 3757
supported 3757
laundering 3754
nasdaq 3754
gaining 3751
currently 3750
boats 3750
sugar 3748
telling 3745
wu 3744
connecticut 3742
andrew 3741
spreading 3740
bernard 3739
nikkei 3737
expresses 3737
neighbor 3737
reading 3736
brand 3734
rico 3732
device 3731
halted 3729
improvement 3729
sectors 3728
whole 3727
defeats 3725
chemicals 3725
arabs 3725
particularly 3719
declare 3718
bulls 3718
locked 3717
hundred 3716
appearance 3715
pushes 3715
derby 3712
discrimination 3708
sustained 3704
strengthening 3703
hostile 3703
healthy 3702
fallen 3701
diseases 3700
pressed 3697
eliminate 3694
knew 3691
aiming 3691
acquitted 3690
boom 3689
vital 3689
cancel 3688
eta 3686
encourage 3686
ki-moon 3685
settled 3685
wages 3685
dropping 3684
surging 3684
allen 3684
assist 3683
bell 3682
shoot 3682
unidentified 3678
hired 3678
screen 3678
stepping 3677
linking 3677
spurs 3675
explosive 3675
#,###.# 3674
climb 3674
first-half 3673
horse 3669
badminton 3668
replaced 3668
salvador 3666
blaze 3666
platform 3664
license 3664
del 3664
enters 3663
sexually 3663
affect 3661
oil-rich 3659
jihad 3655
friendship 3655
displaced 3655
tumbled 3653
jean 3653
paper 3651
blacks 3651
nyc 3651
cameroon 3650
warren 3650
dark 3648
solidarity 3647
provides 3646
conflicts 3645
diplomacy 3644
campus 3643
triple 3643
tragedy 3642
faster 3640
jurors 3638
h. 3637
alone 3635
tighten 3635
knicks 3634
barrier 3633
attacking 3633
recommended 3632
stone 3632
sovereignty 3631
rafael 3631
ethics 3629
occupation 3628
greenspan 3628
pilgrims 3627
liu 3623
smoke 3622
learned 3622
rounds 3621
high-profile 3618
pending 3617
paraguay 3613
buddhist 3612
drinking 3611
fines 3605
opposes 3603
zoo 3603
blocks 3601
ronaldo 3601
dissidents 3600
colleagues 3595
exiled 3594
gonzalez 3594
listed 3593
###-## 3592
approach 3591
announcing 3590
aggressive 3589
frozen 3589
eritrea 3588
sister 3588
mozambican 3585
chamber 3584
christians 3584
mbeki 3582
drawn 3581
mary 3581
escalating 3581
permission 3580
identity 3578
barak 3575
murders 3575
notorious 3575
lunch 3571
includes 3570
silence 3568
stormed 3567
spotlight 3563
doubled 3563
via 3562
##.### 3561
exploration 3561
scoring 3560
schumacher 3558
publicly 3555
alternative 3554
spiritual 3552
banning 3549
amendment 3548
orange 3546
managed 3546
dna 3545
blocking 3541
achieve 3540
agassi 3537
year-on-year 3537
publishing 3536
utah 3536
pays 3535
withdrew 3534
couples 3534
silva 3532
driven 3532
flow 3532
vancouver 3527
honored 3526
condemn 3526
thrown 3525
gunfire 3525
kurds 3524
burning 3524
delivery 3523
opportunities 3523
affair 3521
edwards 3519
grounds 3518
violated 3518
maria 3517
suggesting 3517
section 3514
arnold 3513
savings 3512
unable 3508
detain 3507
singh 3507
reaction 3505
ads 3504
photo 3502
inauguration 3501
beer 3500
easily 3499
distribution 3498
require 3498
brooklyn 3498
deny 3498
bit 3496
dan 3496
incidents 3495
hole 3494
written 3493
feel 3490
retain 3490
statements 3487
suburban 3485
pitch 3484
fix 3483
surveillance 3483
garden 3482
pregnant 3482
benazir 3480
nordic 3478
laos 3477
cancels 3476
technologies 3476
treated 3475
pennsylvania 3474
r. 3466
kentucky 3465
mars 3458
indoor 3457
celebrates 3454
audience 3454
roll 3453
unexpected 3450
lands 3450
don 3450
felt 3449
commanders 3447
titles 3446
employers 3445
brutal 3444
torch 3443
au 3443
suburb 3442
usa 3442
hariri 3442
solar 3442
shop 3441
wal-mart 3441
trees 3440
deported 3440
rabin 3440
liberian 3439
collapsed 3437
amman 3436
punishment 3436
booming 3433
corn 3429
one-year 3429
fragile 3427
diana 3427
abducted 3425
iceland 3425
dawn 3422
'## 3422
counterparts 3422
abandon 3419
avert 3418
patriots 3418
guangzhou 3418
covered 3413
hearings 3411
senegal 3411
stresses 3410
donations 3409
nature 3403
hardline 3402
l 3400
o.j. 3400
fit 3398
louisiana 3398
existing 3397
forms 3396
sky 3396
speak 3394
imported 3394
diamond 3391
cholera 3391
attempting 3390
rodriguez 3389
birds 3387
serie 3387
poisoning 3386
cartel 3385
en 3384
greatest 3384
mafia 3383
shared 3382
decisions 3381
shoulder 3380
campaigns 3379
armenia 3378
avalanche 3378
ecb 3377
regulation 3372
attorneys 3372
required 3371
suffer 3369
outcome 3369
beckham 3369
fort 3368
faction 3366
enclave 3366
duties 3366
broadway 3364
advocates 3363
succeed 3363
cells 3363
picks 3363
stops 3362
runoff 3361
tajikistan 3360
mohammad 3360
shore 3360
farewell 3358
itar-tass 3358
nadal 3357
mourning 3357
longest 3356
khan 3356
ramos 3356
siege 3356
transition 3353
bishops 3351
dogs 3350
colombo 3350
victories 3348
macedonian 3348
latvia 3348
volkswagen 3347
anti-war 3347
comedy 3346
withdraws 3346
h#n# 3345
five-day 3345
breast 3344
passage 3343
recognize 3343
ripped 3343
dismisses 3342
rapid 3342
jeff 3341
faith 3341
blockade 3341
maritime 3340
copenhagen 3338
true 3338
pool 3337
parent 3336
mortar 3333
protecting 3332
stakes 3330
nz 3330
vs. 3330
seminar 3329
tower 3327
wickets 3326
musical 3325
respond 3325
nominated 3324
francs 3324
all-time 3323
writers 3323
deeply 3318
greenhouse 3318
quest 3318
bound 3316
alcohol 3313
hometown 3309
archbishop 3309
designer 3308
condolences 3307
cents 3307
upgrade 3307
congressman 3307
copper 3306
cardinals 3305
albanians 3305
shinawatra 3304
stewart 3302
machine 3301
've 3299
organisers 3299
stealing 3299
doors 3296
far-right 3295
shield 3295
postal 3294
nicaragua 3294
last-minute 3293
confrontation 3292
wta 3291
progressive 3291
laurent 3288
politically 3286
high-speed 3284
ucla 3282
slip 3280
flames 3279
devils 3278
sense 3277
ministerial 3276
damascus 3275
pan 3275
lived 3273
tael 3271
gary 3270
m 3268
rebounded 3266
universal 3266
kuala 3264
jiabao 3262
heritage 3261
richter 3260
dennis 3258
partial 3258
a. 3257
residence 3257
recalls 3256
developments 3255
measuring 3255
secrets 3254
piracy 3254
kicks 3254
boosts 3253
shown 3252
ap 3250
debts 3250
awaited 3250
retailers 3249
factories 3248
prestigious 3248
reflecting 3248
submarine 3248
hijacked 3246
drilling 3246
hiv\/aids 3244
larger 3242
sailors 3239
jerry 3239
rebounds 3238
lumpur 3236
serena 3235
pna 3235
guests 3233
cross-border 3233
ibm 3232
monitors 3232
destroy 3231
uncertain 3231
prague 3230
lightning 3229
uprising 3228
wrote 3227
yahoo 3224
criminals 3224
eric 3223
mental 3221
advice 3221
u.k. 3219
bruins 3215
celtics 3215
braves 3215
bloomberg 3215
badly 3214
weakness 3214
rebuilding 3213
selection 3213
insists 3212
terminal 3212
blasted 3212
freestyle 3206
l. 3206
seem 3205
filled 3204
fa 3202
payment 3201
harsh 3200
percentage 3199
corps 3198
acquired 3198
inaugural 3198
abc 3197
insurer 3196
narrowly 3196
chess 3196
library 3195
either 3195
devastated 3195
declaring 3194
sinking 3194
soar 3192
easier 3190
renew 3190
buyers 3190
devices 3189
donated 3187
indiana 3187
islamabad 3187
nascar 3186
inaugurated 3184
unexpectedly 3184
jason 3183
virgin 3183
textile 3181
germans 3180
hills 3179
montreal 3178
warm 3177
automakers 3176
anna 3176
underway 3176
overtime 3174
sectarian 3173
size 3173
standings 3170
inspections 3168
tunisia 3164
zhejiang 3164
checks 3163
lashed 3163
competitive 3162
persuade 3160
villa 3160
arena 3159
imminent 3159
impoverished 3158
artists 3157
catch 3157
incumbent 3154
roma 3152
cement 3151
features 3151
cope 3150
kohl 3148
nairobi 3148
explain 3148
belonging 3148
journey 3147
kuomintang 3147
battled 3146
! 3146
andre 3145
tentative 3144
ports 3142
polling 3139
deadliest 3138
pulling 3138
mikhail 3138
divisions 3138
forex 3138
lyon 3135
##ers 3134
afghans 3134
sometimes 3131
risen 3131
continental 3129
maoist 3127
master 3124
assured 3124
firmer 3124
jimmy 3123
second-largest 3121
hidden 3121
refusal 3121
investigations 3120
envoys 3119
buses 3118
confirm 3118
bryant 3114
engineers 3114
graft 3114
approve 3113
stretch 3113
signals 3113
concrete 3112
influenza 3111
trinidad 3111
wings 3111
overturned 3110
minimum 3108
fatally 3108
earn 3108
academic 3106
nears 3104
trapped 3102
mps 3102
controlled 3099
worry 3099
le 3098
millennium 3097
bernanke 3097
crews 3097
guide 3097
soft 3097
forming 3095
pete 3093
ones 3093
violation 3092
#rd 3091
triumph 3088
searched 3088
tariffs 3087
novel 3087
signal 3084
venus 3084
me 3081
looming 3078
slovak 3078
peak 3076
governors 3075
aerospace 3075
enrichment 3074
photos 3072
deploy 3071
treat 3071
automobile 3069
irna 3069
top-seeded 3069
ankle 3068
undergo 3066
direction 3065
god 3062
letters 3061
theme 3057
shortages 3056
recognition 3054
tree 3053
consensus 3050
q# 3049
reputation 3049
praise 3048
burst 3047
temperatures 3047
citizenship 3047
lows 3046
weight 3045
spirit 3042
deputies 3041
###-meter 3041
mahathir 3040
article 3040
karadzic 3039
hiding 3039
fights 3038
crop 3038
thin 3038
,### 3037
celtic 3037
dhaka 3036
original 3036
notes 3035
inventories 3032
kidnapped 3031
sick 3030
preparation 3030
barely 3030
e-mail 3029
seal 3028
infection 3028
clears 3027
conglomerate 3024
tianjin 3022
slash 3021
cardinal 3021
expo 3021
departure 3021
sec 3020
dean 3019
edges 3019
capture 3019
inmate 3016
israeli-palestinian 3016
mogadishu 3015
behavior 3015
sporting 3012
contributions 3012
bargain 3011
fujian 3008
prodi 3006
damaging 3005
wayne 3005
really 3004
virtually 3003
urgent 3003
int 3003
images 3001
thousand 3001
truth 3000
endorsed 3000
withdrawn 3000
baltimore 2997
worse 2996
###-### 2995
so-called 2994
unanimously 2994
piece 2992
peng 2991
option 2989
cattle 2988
wound 2987
subject 2983
gear 2983
apart 2982
imprisoned 2980
albright 2979
soil 2979
barry 2979
evacuate 2977
producing 2976
vacation 2976
perry 2974
traffickers 2974
iaea 2974
stress 2974
citigroup 2971
hikes 2970
desperate 2970
allied 2968
consumption 2967
#-under 2961
sharing 2960
runway 2960
stroke 2957
holidays 2956
reverse 2956
revenge 2955
containing 2954
pro 2954
ranking 2954
tennessee 2953
missions 2953
distance 2952
regulatory 2952
weakened 2951
skorean 2951
consulate 2947
demonstrated 2944
sparks 2942
operators 2941
bronze 2941
handle 2940
married 2939
spoke 2939
assess 2936
slowed 2936
stabbed 2935
shed 2932
predicts 2932
guidelines 2931
same-sex 2931
knows 2931
divorce 2931
stunning 2926
empire 2926
priests 2924
upheld 2924
cigarette 2923
regulator 2923
lpga 2922
harbor 2921
significantly 2921
rift 2920
pursuit 2920
intensified 2919
goodwill 2919
edward 2919
expensive 2916
koreans 2916
salt 2915
arctic 2915
challenging 2915
congolese 2914
ray 2913
summary 2913
interested 2912
hampshire 2912
seasons 2912
grip 2910
flooded 2910
bbc 2909
crops 2908
fill 2908
mcdonald 2908
submitted 2905
hub 2903
founding 2902
monopoly 2901
waves 2901
outrage 2901
oust 2899
messages 2898
clearing 2898
lula 2897
sar 2896
disappointing 2896
fallujah 2895
bottom 2893
edition 2892
panic 2890
male 2889
throwing 2889
commodities 2888
balkans 2888
midnight 2888
valencia 2886
javier 2885
stays 2885
skiing 2885
qualify 2884
racism 2884
steep 2883
advisers 2883
comment 2883
privatization 2883
mississippi 2881
defiant 2879
laboratory 2878
zero 2877
dam 2877
palestine 2877
zones 2876
shrine 2875
melbourne 2875
zhang 2874
berth 2872
qualifiers 2871
voter 2871
wealthy 2870
foods 2870
finances 2870
shops 2870
##-nation 2869
simon 2867
vowing 2866
sluggish 2866
carbon 2862
babies 2861
capacity 2861
solana 2860
intends 2860
curfew 2860
mean 2859
ferrari 2858
long-awaited 2858
greenpeace 2858
barometer 2858
sat 2856
merge 2855
##-member 2855
widow 2855
penalties 2855
perform 2854
drowned 2853
filing 2852
coaches 2852
c. 2851
concessions 2851
dr 2851
ownership 2851
clark 2849
mob 2848
arguments 2847
referee 2847
churches 2847
fla. 2846
judiciary 2846
explore 2845
palin 2845
everyone 2845
album 2843
respiratory 2843
pressing 2843
###-# 2840
enemy 2839
honda 2839
accepts 2838
ashes 2838
economists 2837
tonight 2836
rapidly 2836
propose 2836
unicef 2835
multinational 2832
harassment 2832
shandong 2831
rudolph 2830
ibrahim 2830
contested 2829
replacement 2829
read 2828
disarm 2828
directly 2827
knocked 2825
carriers 2825
elsewhere 2824
cppcc 2824
challenged 2823
wilson 2823
carl 2821
unveil 2820
external 2819
alabama 2818
bolivian 2818
caution 2818
disclosed 2817
circuit 2817
pioneer 2816
detainee 2816
celebrating 2816
suharto 2814
lottery 2813
tonnes 2813
barrels 2813
aftermath 2812
economics 2811
emotional 2811
airplane 2811
documentary 2810
roddick 2810
marseille 2810
larry 2805
decides 2804
monaco 2802
investigated 2802
plastic 2802
famed 2801
deportation 2801
bankers 2800
counts 2800
fiat 2799
ankara 2799
serial 2799
venue 2799
feeling 2797
remember 2797
agreeing 2797
parks 2797
provider 2796
impasse 2796
blues 2795
throw 2794
conservation 2793
atop 2793
airstrikes 2792
herself 2792
precede 2792
amsterdam 2791
contribute 2790
missouri 2790
clinic 2788
ftse 2788
declining 2785
africans 2785
slated 2783
bmw 2783
tyson 2783
mall 2781
encouraging 2780
robust 2780
semiconductor 2780
covering 2779
siemens 2778
aged 2777
stayed 2775
corner 2771
engaged 2771
complained 2771
plead 2771
syndrome 2770
visas 2769
sam 2767
older 2766
##-man 2765
banker 2764
malaria 2760
simple 2760
competing 2758
campaigning 2756
institution 2755
prisons 2754
weighed 2753
strict 2752
leeds 2752
dominate 2752
defeating 2751
amazon 2750
stockholm 2749
seekers 2749
ash 2747
mavericks 2745
analyst 2744
volunteers 2744
escape 2743
probes 2743
rampage 2742
contacts 2741
tactics 2740
cincinnati 2740
retreat 2738
shadow 2738
rejecting 2737
writing 2736
reds 2735
bloodshed 2735
semi-finals 2735
dinner 2733
beleaguered 2732
\/ 2732
mulls 2729
ex-president 2729
looms 2729
ryan 2728
worsening 2728
high-ranking 2728
lions 2728
legendary 2727
hiring 2727
gift 2726
eleven 2726
luiz 2724
athletic 2723
critic 2722
pictures 2721
broncos 2719
privacy 2719
flash 2718
tumble 2718
lance 2714
riding 2710
shootings 2710
restaurants 2709
districts 2709
clothing 2709
neighbouring 2709
samsung 2708
ny 2708
retaliation 2707
reception 2706
religion 2706
core 2706
oman 2705
organizing 2705
salary 2703
mounted 2703
possession 2703
resolving 2702
rican 2701
resolved 2700
extraordinary 2699
pledging 2699
arriving 2698
suffers 2698
kyrgyz 2698
ncaa 2697
sidelines 2696
peso 2695
followers 2695
yunnan 2695
slight 2693
first-ever 2692
deposed 2691
impeachment 2691
cubs 2691
protocol 2691
sampras 2691
jumps 2690
fireworks 2689
studio 2689
crowds 2687
rick 2687
deepening 2687
armored 2686
torrential 2686
moldova 2682
machines 2681
mac 2681
survivor 2681
gingrich 2680
identify 2678
scrutiny 2678
inner 2677
jiangsu 2677
#-year 2676
outlawed 2676
correspondent 2675
actors 2674
presses 2673
petition 2673
wildfires 2673
survive 2671
saved 2670
guy 2669
rushed 2669
'd 2669
roy 2668
rolling 2668
hurricanes 2668
shipment 2667
estrada 2667
reopened 2667
managing 2665
richest 2665
maintained 2665
decree 2662
cloud 2661
wells 2659
protestant 2659
wholesale 2658
crunch 2658
yangtze 2656
suspicious 2656
himalayan 2656
michelle 2655
dmitry 2654
icon 2653
nato-led 2652
proved 2651
power-sharing 2651
voices 2650
n.y. 2650
mysterious 2650
burns 2649
encouraged 2649
awaiting 2648
anything 2646
sidelined 2646
romney 2645
nicole 2645
rolled 2645
smashed 2644
coca-cola 2644
sinks 2644
osce 2643
foster 2642
mohamed 2642
eases 2641
troubles 2640
ordering 2639
sergei 2637
denounces 2635
pat 2635
laureate 2634
unhcr 2633
# #\/# 2632
felipe 2632
six-month 2630
canal 2629
commodity 2629
wealth 2626
traveled 2626
isolated 2626
clinch 2624
secured 2624
nokia 2623
indictment 2620
muhammad 2619
lufthansa 2617
acute 2616
reaffirmed 2616
decisive 2615
briton 2612
examine 2611
oregon 2610
sect 2607
crossed 2605
learning 2604
featuring 2603
europeans 2602
caucasus 2602
teenagers 2601
usd 2601
sparking 2601
outstanding 2600
mena 2599
values 2599
slips 2599
eager 2598
foes 2597
painting 2596
salvage 2595
anthony 2595
legacy 2595
bobby 2595
depression 2592
chicken 2592
turkmenistan 2591
wreckage 2590
demonstrate 2590
saint 2589
honduran 2587
exporting 2587
assessment 2586
slumped 2586
beauty 2585
shimon 2583
lucrative 2581
seeing 2581
scandals 2580
prayer 2580
postpone 2580
refuse 2579
overwhelmingly 2579
sight 2578
critically 2578
aristide 2577
brink 2577
magnitude 2577
swing 2576
touch 2575
rays 2575
easter 2574
philip 2574
debates 2573
bribes 2573
finishing 2572
framework 2572
turnout 2571
lethal 2571
farms 2570
hassan 2569
prayers 2568
focusing 2568
km 2568
communication 2568
espionage 2566
metropolitan 2564
text 2563
checkpoint 2562
nissan 2560
rivers 2558
quietly 2558
slowly 2557
alpine 2556
zhu 2555
odds 2554
abusing 2554
flags 2553
batch 2552
wary 2552
sitting 2551
quarter-finals 2550
alleging 2550
autonomy 2549
orlando 2548
severely 2548
oakland 2548
popularity 2548
capitol 2548
immunity 2547
wider 2547
punish 2546
alarm 2545
routes 2544
bears 2544
lithuanian 2544
confirmation 2544
spa 2544
window 2544
offense 2543
lunar 2543
procedures 2543
spree 2543
disasters 2542
anti-corruption 2542
operate 2542
lisbon 2542
l.a. 2541
supplier 2541
armenian 2540
bombed 2540
reshuffle 2538
proceedings 2538
servants 2536
someone 2536
survival 2536
at&amp;t 2536
exposed 2535
scholars 2535
yang 2534
repeat 2533
replacing 2533
harm 2532
contractor 2531
contentious 2530
santos 2530
breach 2529
advisor 2529
multiple 2529
forge 2528
murray 2528
asset 2528
metro 2527
sensex 2526
girlfriend 2524
bruce 2524
lab 2524
cyclist 2523
stages 2521
engineer 2521
would-be 2521
tradition 2518
tracking 2518
swift 2518
defuse 2517
skipper 2517
daimlerchrysler 2517
await 2515
chang 2513
liaoning 2513
goldman 2510
postpones 2510
icc 2509
anticipated 2509
preventing 2509
regain 2508
donor 2507
racist 2507
ivan 2507
equal 2507
substantial 2507
marginally 2506
candidacy 2506
tottenham 2505
terry 2504
commit 2503
togo 2501
nepalese 2501
sole 2500
buffalo 2500
requested 2499
pride 2498
ideas 2498
vice-president 2498
lender 2498
hewitt 2496
gene 2496
overcame 2495
surges 2494
##nd 2494
ferguson 2494
investigator 2494
albert 2494
quarters 2491
tightened 2490
restraint 2490
belfast 2490
frontier 2490
hosting 2489
burma 2488
warship 2488
hawaii 2487
generally 2487
marc 2484
consequences 2483
tainted 2483
processing 2482
aziz 2480
formation 2480
kg 2479
studying 2478
libertadores 2478
ericsson 2477
obtained 2477
planet 2477
shareholder 2477
arson 2475
homer 2475
airspace 2474
sons 2474
forthcoming 2473
statue 2471
abdul 2471
fein 2470
motorcycle 2470
islanders 2470
extradited 2469
educational 2468
stuck 2466
lagos 2465
empty 2462
uses 2462
kidnapping 2462
eating 2462
hainan 2460
principle 2460
khartoum 2459
yields 2458
garcia 2458
staying 2457
sarah 2456
sinn 2456
broadcaster 2454
models 2452
objections 2452
repeated 2451
participants 2451
expulsion 2450
recount 2450
kobe 2450
category 2448
restart 2446
charging 2445
ruler 2445
celebrity 2444
greg 2443
levy 2441
dairy 2440
discussing 2440
satisfied 2440
transferred 2435
re-elected 2435
clues 2434
territorial 2434
sessions 2432
dragged 2431
arguing 2430
strengthened 2430
anti-drug 2428
g## 2427
exhibit 2427
occurred 2426
shelter 2426
lying 2425
#.#### 2424
under-## 2423
hyundai 2422
embassies 2422
unite 2421
champ 2421
stones 2421
nightclub 2420
mario 2420
scam 2420
aging 2419
warsaw 2417
cemetery 2417
short-term 2417
publication 2416
partly 2415
emerge 2414
britons 2414
seizes 2414
switch 2410
courtroom 2409
imprisonment 2409
gymnastics 2408
austerity 2408
exporters 2408
cotton 2408
jails 2408
sir 2407
shelling 2404
hire 2404
coaching 2404
quite 2403
shipments 2402
farmer 2402
miguel 2402
robinson 2402
pandemic 2402
summoned 2402
completes 2401
stamp 2401
dry 2400
suddenly 2399
knowledge 2395
sustainable 2395
residential 2394
bradley 2393
uncovered 2392
holder 2391
disrupted 2391
symbol 2391
jan 2390
maryland 2390
teammate 2390
st 2390
protestors 2390
destroying 2389
clinched 2388
taxi 2386
brands 2385
regarding 2385
ok 2384
drill 2384
fallout 2384
inspector 2384
radar 2383
hague 2383
wrapped 2382
skies 2381
militiamen 2380
thabo 2380
pataki 2380
dealer 2380
discussion 2379
suing 2377
uzbek 2377
chi 2377
wildfire 2376
lingering 2375
liberty 2375
humanity 2374
routine 2374
extradite 2372
kazakh 2372
seizure 2371
incentives 2370
cannes 2370
stanford 2369
restored 2369
eliminated 2366
escaped 2366
type 2366
lynch 2365
preserve 2365
ken 2364
burn 2364
gray 2361
rioting 2359
strongest 2359
quarterfinal 2359
ying-jeou 2358
ramadan 2358
sudden 2358
eagles 2358
mariners 2358
yukos 2358
heightened 2357
broker 2357
requiring 2357
cross-strait 2357
namibia 2356
select 2355
handover 2354
detected 2354
diving 2354
frenchman 2353
talent 2353
mitsubishi 2352
structure 2352
expands 2352
effectively 2351
basra 2351
harvest 2351
reward 2350
younger 2349
atrocities 2348
provisional 2348
generals 2346
arbitration 2346
smuggled 2346
shutdown 2346
disappeared 2345
reveal 2345
landslides 2343
sadc 2342
mass. 2341
hate 2341
character 2340
roles 2340
martinez 2339
saving 2339
reunification 2338
bullets 2337
nominations 2337
notice 2337
eventually 2336
rejection 2335
fujimori 2335
attackers 2335
economist 2334
australians 2334
cote 2334
roberto 2333
ambitions 2333
deciding 2333
warlord 2331
prophet 2331
loyal 2330
nevada 2330
doha 2330
surprising 2330
establishing 2329
vice-chairman 2329
medalist 2329
patent 2329
disrupt 2328
depot 2328
prevented 2327
##:## 2326
solo 2325
weightlifting 2325
discusses 2324
anwar 2324
removal 2323
undermine 2322
behalf 2321
bout 2321
waited 2321
mediator 2321
mediation 2319
estimate 2318
awaits 2318
spectacular 2318
guest 2318
campbell 2318
stick 2317
consultative 2317
highlights 2316
large-scale 2316
herald 2315
a### 2315
duke 2314
forecasts 2314
commemorate 2313
am 2313
hispanic 2313
donate 2313
sniper 2313
sealed 2312
luxembourg 2312
renowned 2312
oil-for-food 2312
chan 2311
bankrupt 2311
tomorrow 2310
oau 2309
usual 2308
hints 2307
timetable 2306
fortune 2305
obasanjo 2303
halts 2302
explodes 2302
reacted 2301
spots 2299
extreme 2298
persian 2296
ron 2296
upsets 2296
week-long 2295
rev. 2295
criticised 2294
everton 2293
collect 2293
supposed 2293
incoming 2292
#\/## 2291
fixed 2291
cites 2291
cook 2290
bonuses 2288
gunned 2288
bolton 2287
performances 2287
migrant 2286
ho 2286
ec 2285
mp 2285
ouster 2285
bull 2285
licenses 2283
alitalia 2283
hamburg 2282
speaking 2281
quebec 2281
bags 2280
boxer 2279
soars 2279
counting 2278
debris 2278
prescription 2277
strained 2277
enjoy 2276
buoyed 2274
stabilize 2274
indices 2274
ammunition 2274
kenneth 2273
tommy 2273
regrets 2272
deeper 2272
tajik 2271
penguins 2271
spate 2271
passport 2271
... 2270
mahmud 2270
unilateral 2270
scholar 2270
registration 2270
supermarket 2269
accepting 2269
gangs 2268
biden 2267
two-time 2267
intention 2266
cult 2265
roberts 2264
ian 2264
merrill 2261
refuge 2261
volvo 2260
participating 2260
copyright 2259
feud 2259
walking 2259
cigarettes 2258
semi-final 2258
slows 2257
intensify 2257
hair 2256
mongolian 2256
catholics 2256
macau 2255
thinking 2254
mistake 2253
plunges 2252
victoria 2252
semi-official 2251
poorest 2251
spur 2251
cameras 2250
freight 2249
register 2249
lehman 2248
mauritania 2247
winger 2247
pieces 2247
salaries 2247
full-year 2246
adams 2245
raging 2245
fruit 2244
indefinitely 2243
newest 2242
rider 2242
warring 2241
observer 2241
promoted 2240
cnn 2240
rape 2239
walt 2239
rehabilitation 2239
iii 2238
madeleine 2238
fact 2238
grozny 2238
exchanged 2237
transplant 2236
criticizing 2236
steven 2236
grim 2235
matt 2235
colony 2234
else 2233
orbit 2230
harare 2230
represent 2229
spark 2228
cited 2228
java 2227
inacio 2227
dip 2225
memorandum 2225
hurdles 2225
islamists 2222
retained 2221
michel 2221
bright 2221
layoffs 2219
stole 2218
morales 2218
inspired 2217
youngest 2217
hamilton 2216
achieved 2214
qualified 2214
ajax 2213
regret 2213
ceremonies 2213
dramatically 2211
maintenance 2210
favored 2210
roster 2209
sharks 2209
ubs 2208
chair 2207
deposits 2207
amateur 2206
maximum 2205
institutional 2205
gp 2204
dying 2203
predecessor 2202
dumped 2201
indigenous 2201
wartime 2200
borrowing 2200
potter 2200
flown 2199
graham 2198
silent 2197
relatively 2197
seeds 2196
page 2196
requirements 2195
raul 2195
stabbing 2194
vincent 2194
adopts 2193
fun 2192
endorsement 2192
airstrike 2191
glass 2190
abused 2189
ross 2189
bayer 2189
vessels 2188
posed 2188
##m 2187
expecting 2187
commentary 2186
lobbying 2186
killers 2186
expressing 2185
ryder 2183
developer 2183
gazprom 2183
insider 2183
reveals 2183
one-time 2181
accuse 2181
spacecraft 2180
milwaukee 2179
blaming 2179
founded 2179
reiterates 2179
physical 2179
straw 2178
nursing 2177
adoption 2177
anti-doping 2176
sanchez 2176
oversight 2175
dirty 2175
storage 2174
collected 2174
lights 2174
protected 2173
twelve 2172
hanoi 2171
requests 2170
except 2169
bowler 2169
posting 2169
lobby 2169
pardon 2168
awareness 2166
smooth 2164
probing 2163
imposing 2163
radioactive 2162
ignored 2160
counsel 2159
expel 2159
handing 2159
shattered 2159
lazio 2158
haven 2158
concerning 2158
f-## 2158
bet 2157
rough 2157
ducks 2156
smugglers 2156
rebellion 2156
contribution 2155
lowered 2155
jungle 2155
feed 2155
retains 2155
yitzhak 2154
trainer 2154
cape 2153
ex-soviet 2153
shocked 2152
intellectual 2152
assad 2152
undergoing 2150
mosul 2149
pose 2148
madoff 2147
telecoms 2147
usually 2146
anderson 2146
bipartisan 2146
write 2146
contingent 2145
guatemalan 2144
museveni 2144
dipped 2143
consultations 2143
brawl 2143
monks 2143
engines 2142
morris 2142
manage 2141
unfair 2140
al-maliki 2139
anaheim 2139
carmaker 2138
literature 2138
norman 2138
treason 2137
mitchell 2136
communists 2134
environmentalists 2134
holes 2133
peacefully 2131
dengue 2129
midwest 2129
atletico 2129
jitters 2127
ambassadors 2127
wear 2126
chose 2126
teammates 2126
impressive 2125
pursued 2125
renault 2124
intervene 2124
arkansas 2124
safely 2124
fueled 2123
accelerate 2122
jumping 2121
pearl 2121
evasion 2120
withdrawing 2120
vulnerable 2119
confederation 2119
invites 2119
shape 2119
performed 2119
historical 2118
minorities 2117
surprised 2117
probation 2117
stripped 2116
ramallah 2116
moody 2116
responding 2115
smuggle 2115
guarantees 2114
bench 2113
tours 2113
forests 2113
persistent 2112
renews 2112
ipo 2111
moments 2110
buenos 2110
insisting 2110
sponsor 2110
rubble 2110
filmmaker 2109
aires 2109
presents 2108
yacht 2107
weakening 2106
fred 2106
climbs 2104
pilgrimage 2103
contractors 2102
khatami 2100
outskirts 2100
repeatedly 2100
pump 2099
jetliner 2099
permit 2098
flyers 2098
sharif 2097
galaxy 2096
confessed 2096
sciences 2095
walker 2095
screening 2095
verge 2094
dismiss 2094
earthquakes 2093
colleges 2093
mild 2092
comply 2091
usc 2091
broader 2091
brokerage 2090
administrator 2090
lure 2089
detailed 2088
bundesbank 2088
kandahar 2087
manslaughter 2087
dismissal 2087
feels 2087
mothers 2087
informed 2087
topped 2086
monument 2086
transactions 2085
upholds 2085
interference 2084
weigh 2084
maine 2084
buyout 2084
monica 2084
raw 2083
croat 2082
##rd 2082
shakes 2081
pinochet 2081
christie 2080
nv 2079
expenses 2079
ahmad 2077
advancing 2077
long-running 2077
statistical 2077
telekom 2076
audit 2076
accords 2076
describing 2075
supervision 2075
douglas 2075
railroad 2074
powerhouse 2074
sang 2073
misconduct 2073
recruiting 2073
costly 2073
dominant 2073
hsbc 2072
fee 2072
americas 2070
'##s 2070
drink 2069
downs 2069
genetic 2068
davenport 2068
riyadh 2067
quell 2067
dublin 2067
gate 2067
suns 2066
discount 2066
obtain 2065
congratulates 2065
denying 2064
zanzibar 2063
intensive 2062
ottawa 2061
tale 2061
taiex 2061
excessive 2061
nick 2060
roof 2058
rout 2058
error 2058
hedge 2057
harder 2057
alongside 2056
humans 2056
birmingham 2055
better-than-expected 2055
foiled 2055
songs 2054
seas 2054
experienced 2054
heights 2054
contaminated 2054
haul 2054
poet 2054
analysis 2054
ranch 2053
commuter 2052
slashed 2052
opposing 2052
militias 2051
adults 2050
pkk 2050
shake 2050
#-under-par 2049
memories 2049
container 2049
skills 2049
donates 2048
nurses 2047
facebook 2047
pla 2047
difficulties 2046
barriers 2045
individuals 2045
d'ivoire 2044
circle 2042
farming 2042
beheaded 2039
vicente 2038
tone 2037
ted 2037
smart 2036
surrendered 2036
revival 2036
teaching 2035
yards 2034
exactly 2034
roots 2034
convince 2034
craig 2034
confront 2032
donation 2032
aussie 2032
fence 2031
turin 2031
d. 2031
speaks 2030
turnover 2030
slower 2030
advocate 2029
shuts 2029
answers 2029
astronaut 2029
dealt 2029
blake 2028
bag 2028
accession 2028
mohamad 2028
biological 2026
hosted 2026
botswana 2025
unacceptable 2024
neck 2024
disgraced 2023
gifts 2020
columns 2019
completing 2018
motorola 2017
directed 2017
tightening 2017
straits 2017
topple 2016
condemnation 2016
lopez 2015
franchise 2015
shoes 2014
sheriff 2013
qantas 2013
lone 2013
equities 2013
hingis 2013
ambushed 2013
gesture 2010
defiance 2010
arthur 2010
cypriots 2010
pack 2009
councilor 2009
trades 2009
departments 2008
slid 2008
thompson 2008
ladies 2007
settles 2007
parking 2005
muscle 2005
wfp 2005
shoots 2004
tears 2004
horn 2004
gays 2003
braced 2003
cole 2003
lung 2003
studios 2002
highlight 2002
sumatra 2001
controlling 2001
athlete 2001
oslo 2001
televised 2000
receiver 2000
paintings 2000
trader 2000
ward 1999
principal 1998
loaded 1998
defying 1998
researcher 1998
tore 1997
stunned 1997
commitments 1996
retires 1996
plenty 1996
torn 1995
purchases 1995
associates 1994
rockies 1993
queens 1993
favorites 1993
speeding 1992
stern 1991
igor 1991
kabila 1991
submit 1990
shells 1990
helmut 1989
architect 1988
shoppers 1988
romano 1987
####.## 1986
indexes 1985
mourn 1984
kelly 1984
phillies 1983
vs 1983
advised 1982
laura 1982
issuing 1982
endorse 1980
hurdle 1980
#-## 1980
jesus 1979
trained 1979
staging 1978
ossetia 1977
clijsters 1976
pitching 1976
rulers 1976
hanging 1975
maintaining 1975
convicts 1974
recording 1973
electrical 1973
magistrate 1972
warriors 1971
nile 1970
frustrated 1970
sahara 1970
insurgent 1969
plunging 1969
metals 1968
assailants 1966
spare 1966
substance 1966
ranging 1966
appointment 1965
tracks 1965
condemning 1965
valuable 1964
recognized 1964
resulted 1964
nationalists 1963
guangxi 1962
profile 1962
nancy 1962
milestone 1962
mate 1961
mastermind 1961
millionaire 1958
efficiency 1958
superstar 1958
pc 1957
reconsider 1957
braces 1956
solomon 1955
mechanism 1954
infant 1953
classified 1952
lakes 1952
prostitution 1952
spell 1951
dedicated 1950
##-percent 1949
gorges 1948
resident 1948
moral 1947
maradona 1946
stemming 1946
hammer 1945
concludes 1944
pressures 1944
cameron 1942
unified 1942
annually 1941
gunbattle 1941
prior 1941
projected 1940
irregularities 1940
origin 1939
fog 1939
tortured 1939
matters 1938
discipline 1937
insurers 1937
murdoch 1937
camera 1936
reagan 1936
heating 1936
tunisian 1936
divide 1935
ordinary 1935
oversee 1934
properties 1934
assassinated 1933
turner 1932
moore 1932
toy 1932
timothy 1931
contender 1931
reigning 1930
hail 1930
betting 1930
survives 1929
astros 1929
painful 1928
conducting 1928
diesel 1928
nicaraguan 1927
extensive 1927
adam 1926
bone 1926
fearing 1926
stopping 1925
defenseman 1924
authorized 1924
mood 1924
g-# 1924
congratulated 1924
signaled 1923
trips 1922
creditors 1922
corrupt 1922
latvian 1922
weighs 1922
angel 1922
cautiously 1922
competitors 1921
hard-line 1921
controllers 1919
prosperity 1919
viewers 1918
acres 1918
restrict 1918
oecd 1917
marred 1916
sailor 1915
crush 1915
iranians 1915
informal 1914
skeptical 1913
b. 1913
sentencing 1912
suburbs 1911
happy 1911
highways 1911
hectares 1911
sacramento 1911
gap 1910
martial 1910
actually 1909
hushen 1909
restoring 1909
financier 1908
weapon 1908
three-month 1908
municipality 1908
oks 1908
iaaf 1907
sadr 1907
widening 1906
patrols 1906
component 1905
colonial 1904
ham 1903
lasting 1903
narcotics 1902
classes 1902
mourners 1902
transitional 1902
mir 1901
reassure 1901
bold 1901
rampant 1900
mali 1900
sailing 1899
dating 1899
glory 1898
grenades 1897
triggering 1897
dumping 1896
bust 1896
desire 1896
austin 1896
passports 1896
throws 1896
detonated 1895
todd 1894
underwent 1893
runner 1893
yushchenko 1893
incursion 1893
ronald 1891
overwhelming 1891
rein 1891
nazis 1891
crushed 1890
surface 1889
enterprise 1889
favors 1889
nominees 1889
italians 1889
hilton 1888
delaying 1888
amr 1887
marlins 1887
gabon 1886
lies 1884
c 1884
frees 1883
boutros-ghali 1882
cracks 1881
deng 1881
installed 1880
shaanxi 1879
sit 1879
arrivals 1879
abruptly 1878
reversing 1878
slumping 1878
estonian 1877
porto 1876
household 1876
sen 1876
ignoring 1875
ratify 1874
two-week 1873
livestock 1871
mistakes 1871
fischer 1870
six-party 1870
il 1869
dolphins 1869
dell 1869
belt 1868
procedure 1868
bashar 1868
mediators 1868
clothes 1867
risky 1867
repatriation 1866
blind 1866
bse 1865
bethlehem 1865
pretax 1864
facilitate 1864
argued 1863
spin 1862
stalemate 1862
restoration 1862
walter 1862
content 1862
unesco 1861
coordinator 1861
entrance 1861
roh 1860
relative 1860
cooperative 1859
unita 1859
volumes 1859
aiding 1859
polio 1858
tighter 1858
openly 1857
honorary 1857
ultimatum 1857
proof 1857
surrounded 1856
carlo 1856
dump 1856
criticize 1855
delivering 1855
cycle 1855
raiders 1854
year-end 1854
thieves 1854
partially 1854
papers 1853
guyana 1853
shaky 1852
arresting 1852
megawati 1851
wisconsin 1850
modestly 1849
drunken 1849
marcos 1849
remembered 1847
failures 1847
suggest 1847
genetically 1846
rifle 1846
atmosphere 1844
eddie 1844
theory 1843
hat 1842
credibility 1842
nervous 1842
spike 1842
janeiro 1842
crippling 1842
erdogan 1842
remarkable 1841
second-round 1840
grabbed 1840
greeted 1839
war-ravaged 1839
atlantis 1838
heated 1837
zagreb 1837
listing 1837
pneumonia 1836
radovan 1836
enforce 1835
toys 1835
pet 1833
overthrow 1833
signaling 1831
alvaro 1831
sumo 1830
devil 1830
simply 1830
picking 1829
rocky 1829
sean 1829
resuming 1828
migration 1828
corp 1828
karl 1827
executions 1827
firmly 1826
no-confidence 1826
enemies 1825
reopens 1825
counties 1825
exposure 1824
lashes 1824
civic 1823
wizards 1822
adult 1822
plate 1821
pursuing 1819
exclusive 1819
boxes 1819
proceed 1818
extremism 1818
royals 1818
novelist 1817
forget 1817
mountainous 1816
biathlon 1816
initiatives 1815
performing 1815
builds 1815
graf 1815
archaeologists 1815
testifies 1815
grounded 1814
paving 1814
tuberculosis 1814
indianapolis 1814
denounce 1813
literary 1812
buildup 1811
client 1809
havana 1809
whale 1809
tightens 1809
thriller 1809
grab 1809
coordinate 1808
speedway 1808
mentally 1808
frustration 1805
besieged 1805
derailed 1804
arabian 1804
caretaker 1804
achievements 1803
anti- 1802
downed 1802
valued 1801
canadians 1800
horror 1800
go-ahead 1800
srebrenica 1800
centuries 1800
sorenstam 1799
abkhazia 1798
planted 1797
hun 1797
hutu 1797
laying 1796
pierre 1796
million-dollar 1796
cavaliers 1795
kiev 1795
g. 1794
cellular 1794
securing 1794
bronx 1794
kidney 1794
zurich 1794
pakistanis 1792
populous 1791
dreams 1791
subprime 1791
lessons 1790
unearthed 1789
wish 1789
turks 1789
guinea-bissau 1788
pitched 1788
creates 1788
vajpayee 1788
ashcroft 1788
reviewing 1788
completely 1787
kathmandu 1786
olusegun 1786
nw 1786
leaked 1785
infections 1785
second-half 1783
deteriorating 1782
symbolic 1782
robbers 1780
virtual 1780
lists 1780
promotes 1779
rafah 1779
wire 1779
principles 1778
automotive 1777
casting 1777
steam 1776
fda 1776
pounded 1776
hksar 1776
symposium 1774
hefty 1774
d.c. 1773
medicines 1773
lockerbie 1773
disperse 1773
rok 1773
jewelry 1773
trigger 1772
henan 1772
lock 1772
specific 1772
yoweri 1771
##kg 1770
located 1770
batsman 1770
heroes 1769
pesos 1769
escalation 1769
grown 1768
keen 1768
wrestling 1767
justices 1767
oracle 1767
coordination 1767
lenders 1766
wood 1766
lincoln 1764
burden 1763
weighing 1762
defendants 1762
front-runner 1762
ruins 1761
meltdown 1761
mighty 1761
cross-country 1760
jong 1760
warships 1760
nurse 1760
flies 1760
rolls 1759
maybe 1759
u. 1759
yield 1759
crises 1759
samuel 1759
rongji 1758
clock 1758
cancellation 1757
surviving 1757
d 1756
tire 1756
avian 1756
lengthy 1756
punished 1755
troy 1755
merck 1755
fiery 1755
hybrid 1755
variety 1754
opium 1754
earns 1753
algiers 1753
witnessed 1752
quake-hit 1752
interrogation 1752
retiring 1752
hijackers 1751
injection 1751
sovereign 1750
dhabi 1750
defendant 1746
sachs 1746
fund-raising 1746
releasing 1745
walls 1745
reviews 1745
composer 1745
moderately 1744
contenders 1744
color 1743
brad 1743
graves 1743
burial 1742
hudson 1742
lawrence 1742
seizing 1742
billy 1741
safeguard 1741
enlargement 1741
bias 1740
rankings 1740
swimmer 1740
avenue 1740
enjoyed 1740
focuses 1739
reaffirms 1738
noon 1738
movements 1738
happened 1738
exxon 1737
sell-off 1737
encounter 1737
foot-and-mouth 1736
coordinated 1736
steal 1736
teens 1735
wishes 1735
johnny 1734
pickup 1734
reversed 1734
hebei 1733
diabetes 1733
treating 1733
tang 1733
saves 1732
servicemen 1732
orioles 1732
recommends 1731
nablus 1731
bremen 1731
label 1730
dave 1730
turnaround 1730
anc 1729
neighborhoods 1728
qian 1727
invite 1727
destroys 1727
outspoken 1726
chongqing 1726
mix 1726
victor 1725
lindsay 1724
quotas 1724
slaughter 1723
noted 1723
dancing 1723
utilities 1722
outlines 1722
clerics 1722
install 1722
spat 1721
surgeon 1721
specialist 1721
kuchma 1721
impossible 1720
pretty 1720
zuma 1720
extremely 1720
respectively 1720
left-wing 1720
dates 1720
closest 1720
clippers 1719
martha 1719
connected 1719
embezzlement 1718
gong 1718
example 1718
freezing 1717
gases 1716
bed 1716
findings 1716
sleep 1716
medics 1715
argument 1715
conspiring 1715
admit 1715
horses 1713
suits 1713
stuttgart 1713
hunan 1713
poured 1712
paralyzed 1712
owen 1710
petrol 1710
barroso 1709
sweet 1709
contained 1708
lieberman 1708
maintains 1708
liquidity 1707
tip 1706
hewlett-packard 1706
automatic 1705
clouds 1705
disciplinary 1705
semis 1704
rings 1704
tomb 1704
consolidate 1704
self-rule 1703
tiananmen 1703
satellites 1703
slim 1703
powder 1703
six-year 1703
skin 1702
premiere 1702
revived 1702
orchestra 1702
instability 1701
resist 1701
portion 1701
uribe 1700
uygur 1700
removing 1699
unique 1699
retreated 1699
portland 1698
ivanov 1698
reformist 1698
machinery 1696
determination 1696
ravaged 1695
degrees 1695
destination 1693
brotherhood 1692
thanksgiving 1692
porn 1692
volcanic 1692
reviving 1691
jonathan 1691
richardson 1691
carnival 1690
spreads 1688
robin 1688
taste 1688
nuggets 1687
parole 1687
fundamentalist 1687
autumn 1687
colleague 1686
stampede 1686
u.s.-based 1686
observe 1686
lined 1685
madonna 1684
technological 1684
najaf 1684
outbreaks 1683
hitler 1682
toppled 1681
aol 1681
jesse 1681
deliveries 1680
confiscated 1680
organize 1680
ups 1679
separated 1679
bonus 1679
convene 1679
embrace 1678
touched 1678
experimental 1678
sights 1678
stricken 1678
pistons 1677
slovenian 1677
cubans 1677
klaus 1677
essential 1677
al-assad 1676
climbing 1676
compensate 1676
di 1676
crushing 1676
prompt 1675
comfortable 1675
golds 1674
regulate 1673
greenback 1672
granting 1672
endorses 1672
radiation 1672
propaganda 1672
deadlocked 1672
ace 1671
sprinter 1671
mediate 1671
angered 1671
offenders 1671
sail 1671
divers 1671
ab 1670
rattled 1670
socialists 1670
reactors 1669
jorge 1669
blackburn 1669
gadhafi 1668
methods 1668
obstacles 1668
mercury 1667
hawks 1667
sheffield 1667
drinks 1667
nice 1666
dictatorship 1666
jay 1666
clay 1665
investing 1665
tung 1664
columbus 1664
disclosure 1664
soybean 1664
plus 1663
naming 1663
well-known 1663
panda 1662
cal 1662
attracted 1662
asiad 1662
indicating 1661
pacers 1661
rooney 1661
dortmund 1660
hearts 1660
taxpayers 1660
top-ranked 1659
vaclav 1659
barbara 1659
samples 1659
capable 1658
capitalization 1658
avoided 1658
misses 1657
rooms 1657
bearing 1656
compatriot 1656
priorities 1655
burmese 1655
understand 1654
eads 1654
anhui 1653
mayoral 1652
eligible 1652
rod 1651
transmission 1651
attitude 1651
recovers 1650
recalling 1650
conversation 1649
hunter 1649
handful 1648
resolutions 1647
eduardo 1647
committing 1647
recruit 1647
editors 1647
tools 1647
sayyaf 1646
everest 1646
dangers 1645
o'neal 1645
cartoon 1644
pastor 1644
snapped 1644
cap 1644
ebay 1643
marshall 1642
contracted 1642
deepen 1642
pave 1642
loved 1642
implementing 1642
colonel 1642
venice 1641
none 1641
epic 1641
re 1641
jamaican 1640
modified 1640
sink 1640
pages 1640
mutiny 1639
low-cost 1639
deficits 1638
defied 1638
newt 1637
tribe 1637
fixing 1637
felix 1636
confusion 1634
separation 1634
combating 1633
tender 1632
gbagbo 1632
charlotte 1631
skip 1631
successive 1631
lukashenko 1631
lesotho 1630
prolonged 1630
tool 1629
workshop 1629
scrambled 1629
hubei 1629
accidentally 1628
lockheed 1628
p. 1628
discover 1627
lu 1626
mecca 1624
evil 1624
derail 1623
amounts 1622
lion 1622
phelps 1621
resulting 1620
taichung 1620
neither 1619
eat 1619
ernesto 1618
illicit 1618
letting 1617
fernandez 1617
homemade 1616
solutions 1616
designated 1615
opel 1615
u.s 1615
balanced 1614
proposing 1614
rupiah 1614
map 1614
overturn 1614
volunteer 1614
beaches 1613
favorable 1612
strategies 1612
cohen 1611
pierce 1611
janet 1611
celebrities 1610
productivity 1608
negotiated 1608
hans 1607
yard 1606
nor 1606
icrc 1606
prosecute 1606
gandhi 1606
affecting 1605
secretly 1604
unconstitutional 1604
rid 1604
oscars 1603
joy 1602
precious 1602
courthouse 1602
malta 1602
aig 1601
intent 1601
gallery 1601
rabbi 1601
warfare 1600
likud 1599
thick 1599
isolation 1598
improves 1598
wikileaks 1597
indy 1596
mud 1596
customer 1596
dominique 1596
inspect 1596
elephant 1595
sounds 1595
dust 1595
exporter 1595
conclusion 1594
embargo 1594
synagogue 1592
cathedral 1592
disastrous 1592
emir 1592
slayings 1592
francois 1591
location 1591
cat 1591
mouth 1591
caspian 1591
nuke 1591
hurled 1591
flagship 1590
undisclosed 1590
pen 1589
dips 1589
numerous 1589
plagued 1589
laborers 1589
flotilla 1589
postwar 1588
flowers 1588
corporations 1587
kaczynski 1587
elements 1587
jolted 1587
quarter-final 1587
jockey 1587
collective 1587
uniform 1586
crippled 1586
furious 1585
channels 1585
interpol 1585
enable 1584
rage 1583
cinema 1583
reflect 1583
queensland 1581
wbc 1581
counterfeit 1581
bahamas 1580
dividend 1580
post-war 1579
farc 1579
justin 1579
mercosur 1579
elementary 1578
delivers 1577
outdoor 1577
willingness 1577
barring 1576
proper 1576
mofa 1576
u.s.-backed 1575
column 1574
readiness 1573
spears 1572
fuels 1572
branches 1572
lin 1570
perez 1570
aston 1569
hungry 1569
martina 1569
elimination 1569
conclude 1569
gcc 1569
madison 1568
holders 1568
hughes 1568
zairean 1568
vivendi 1568
margaret 1567
sort 1567
charlie 1567
engage 1566
kyoto 1566
panthers 1565
wreck 1565
thinks 1565
unarmed 1565
f# 1564
completion 1564
kicking 1564
silicon 1564
jacob 1564
bosses 1564
factor 1564
blockbuster 1563
poses 1563
voluntary 1563
repairs 1563
barrage 1562
uss 1562
moi 1562
warehouse 1561
twist 1561
upward 1560
beneath 1560
adjourned 1560
francis 1559
outlined 1558
respects 1558
mainstream 1558
diagnosed 1557
facts 1557
shifts 1557
run-off 1557
homeowners 1556
abuja 1556
faltering 1556
shane 1555
singing 1555
wright 1555
scattered 1555
sabres 1555
insulting 1554
choosing 1554
pedro 1553
auckland 1553
garbage 1553
freddie 1553
videos 1553
chapter 1553
pre-tax 1552
revolt 1552
twenty 1552
dressed 1551
settling 1551
miner 1551
searches 1551
boca 1551
widened 1550
eriksson 1550
warrants 1550
shaken 1550
tsvangirai 1549
entrepreneurs 1548
dubbed 1548
overshadowed 1547
mounts 1547
violate 1547
casualty 1545
sabotage 1545
quarantine 1545
idol 1545
prop 1545
anti-terrorist 1545
lloyd 1544
ghraib 1544
unanimous 1543
brunei 1543
hunters 1542
chest 1542
recommend 1541
sweeps 1541
railways 1541
youtube 1540
limited-overs 1540
hijacking 1539
jon 1539
assaulting 1539
responded 1539
mile 1539
provisions 1538
floyd 1538
hinted 1538
conceded 1538
uruguayan 1538
partisan 1537
tinto 1537
childhood 1537
abduction 1537
margin 1537
frederick 1536
rhetoric 1536
burkina 1536
sunken 1536
ranked 1535
marion 1535
fitness 1534
reno 1534
originally 1534
suspending 1534
gender 1534
drunk 1533
sprawling 1532
lifetime 1531
downing 1531
gamble 1531
daughters 1530
trans-atlantic 1530
aggression 1530
anne 1530
third-largest 1529
application 1528
clergy 1528
republics 1528
tayyip 1528
eggs 1527
dynasty 1527
hears 1527
assassinate 1527
spurred 1526
credentials 1526
combination 1525
long-distance 1525
raymond 1525
defy 1525
tide 1524
ebola 1523
##s 1523
aluminum 1523
cartoons 1523
forged 1522
boutros 1521
harris 1521
kirkuk 1521
bury 1520
unpaid 1520
murderer 1520
hung 1519
yes 1519
overseeing 1519
lease 1519
talked 1518
paint 1518
riders 1517
al-sadr 1517
reeling 1516
ismail 1515
bucks 1515
unusually 1515
mogul 1514
yevgeny 1513
halfway 1513
sisters 1513
cleanup 1513
ricky 1512
relics 1512
koreas 1512
professionals 1511
proud 1511
prizes 1510
safin 1510
angrily 1510
halting 1509
township 1509
knight 1509
erupts 1509
recep 1509
leonid 1508
strokes 1508
assurances 1508
garment 1507
merchant 1507
havoc 1507
plight 1507
assists 1506
interviews 1506
ventures 1506
shiites 1506
mandatory 1505
cathay 1505
moussaoui 1505
cost-cutting 1505
degree 1504
three-time 1504
improvements 1504
patriarch 1503
symptoms 1503
tenure 1502
swung 1502
par 1502
gonzales 1501
knockout 1501
skier 1501
equivalent 1501
norodom 1501
patience 1500
surprisingly 1500
calendar 1499
sultan 1499
grass 1499
respected 1499
primaries 1499
tips 1499
predict 1498
artificial 1498
tariff 1497
backers 1497
detains 1497
safer 1496
otherwise 1496
consulting 1495
kadhafi 1495
carries 1494
cheer 1494
baht 1494
tornado 1494
ballet 1493
bordering 1493
tackling 1493
formerly 1493
sting 1493
leaking 1493
qichen 1493
po 1493
implicated 1492
organ 1492
speedy 1492
six-day 1491
alps 1491
forestry 1491
dig 1491
mauresmo 1490
yudhoyono 1490
dominance 1490
judgment 1490
privately 1490
lech 1490
replaces 1489
faso 1489
oval 1488
scenes 1488
consolidated 1488
parker 1487
suggestions 1487
tin 1487
locker 1487
seles 1486
brewers 1486
acted 1486
mourns 1486
batting 1485
unclear 1485
bordeaux 1485
glenn 1484
unofficial 1484
fledgling 1484
pleased 1484
admission 1483
soul 1483
crystal 1483
healthcare 1483
forbes 1483
amendments 1483
caracas 1482
bucharest 1482
dismantle 1482
fat 1481
yangon 1481
keith 1481
hardly 1480
fares 1480
knife 1479
drives 1478
achievement 1478
curbs 1478
siberian 1478
stiff 1478
root 1477
universe 1476
blatter 1476
on-line 1476
ratified 1476
graduate 1476
pensions 1475
widens 1475
chernomyrdin 1474
unpopular 1474
psv 1474
permits 1474
acquisitions 1473
moratorium 1473
rob 1472
integrity 1472
bollywood 1472
pointed 1472
method 1471
susilo 1471
speedskating 1471
maiden 1471
rallying 1471
passion 1469
furniture 1469
chartered 1469
luck 1468
comedian 1468
quoting 1468
cabin 1468
motivated 1468
wade 1467
correct 1467
hemisphere 1466
saakashvili 1466
competitions 1465
hopefuls 1464
thwart 1464
cooking 1464
convinced 1464
fifteen 1463
disappearance 1463
shifting 1463
takeoff 1463
alain 1463
outfielder 1463
shoe 1463
retrial 1462
biotechnology 1460
wwii 1460
robbed 1460
errors 1459
sympathy 1459
earning 1458
foul 1458
endeavour 1457
mitt 1457
anxiety 1457
djokovic 1457
restructure 1456
publish 1456
factors 1455
eruption 1454
hip 1454
valentine 1454
secular 1453
carefully 1453
inciting 1453
ignore 1452
falcons 1452
unemployed 1451
comic 1451
backlash 1449
anglican 1449
catastrophe 1449
sevilla 1449
diet 1448
blueprint 1448
golfer 1447
poles 1447
dealings 1445
avoiding 1445
recommendations 1445
ceiling 1444
reinforce 1444
lieutenant 1443
padres 1443
samoa 1443
marriages 1443
approaching 1443
dress 1442
governance 1442
warm-up 1441
specialists 1441
matthew 1441
reunion 1441
last-ditch 1441
run-up 1440
oath 1439
two-month 1439
drag 1439
wonder 1438
ed 1438
one-stroke 1438
duo 1438
bounce 1437
filipinos 1437
ayatollah 1437
nearing 1437
trick 1437
strongman 1436
mexicans 1436
pork 1436
harper 1436
curbing 1436
snap 1436
engagement 1435
musicians 1435
chickens 1435
briefed 1434
forensic 1434
###-year-old 1433
sw 1433
counterterrorism 1433
sofia 1432
convened 1432
floating 1432
becker 1432
adjusted 1432
scrap 1432
bihac 1431
zhuang 1430
forecasters 1430
freighter 1430
anxious 1430
teng-hui 1430
publicity 1429
shark 1429
ferdinand 1428
fao 1428
sebastian 1428
developers 1428
thirteen 1428
counted 1428
mayors 1428
industrials 1427
trio 1426
self 1426
quota 1426
grammy 1425
panamanian 1425
hanged 1425
#.#-magnitude 1425
plummeted 1425
historian 1425
deposit 1424
miracle 1424
stationed 1424
vaccines 1423
pfizer 1423
bridges 1423
tires 1421
explanation 1421
downward 1420
suez 1420
arrangements 1420
montana 1420
travels 1420
rogers 1420
meteorological 1419
spaniard 1419
porsche 1418
shrugged 1418
runaway 1417
andrei 1417
choices 1417
all-out 1416
qatari 1416
blue-chip 1416
grabs 1416
expense 1415
toughest 1415
turbulent 1415
lackluster 1414
reopening 1414
experiment 1414
vp 1413
repay 1413
reluctant 1412
resorts 1412
calderon 1411
intercepted 1411
swim 1411
marco 1410
zelaya 1410
saints 1410
introduction 1410
strengthens 1410
rupees 1410
weaken 1409
pharmaceuticals 1409
bacteria 1409
tolerance 1409
quartet 1408
shanxi 1408
atal 1408
readers 1408
stamps 1408
deliberations 1407
pelosi 1406
mae 1406
lesson 1406
outpost 1406
secrecy 1406
pipe 1405
chretien 1405
transparency 1404
best-selling 1404
bambang 1404
whales 1403
examining 1403
addition 1403
czechs 1403
v 1403
copies 1403
contention 1403
nikkei-### 1403
requires 1402
nanjing 1402
examination 1402
sergio 1402
looted 1402
photographs 1402
suisse 1401
elects 1401
undp 1401
admitting 1400
advocacy 1400
aegean 1399
falun 1399
commandos 1399
universiade 1399
enormous 1399
ricardo 1399
owns 1398
boyfriend 1398
giro 1398
finishes 1398
sheep 1397
halftime 1397
scrambling 1397
equality 1397
siberia 1396
highlighted 1396
fortunes 1396
slides 1396
fulham 1395
indication 1395
applied 1395
consultant 1395
sponsorship 1394
sand 1394
slipping 1394
havel 1394
provision 1394
detective 1394
spotted 1393
auschwitz 1392
rivalry 1391
jays 1391
inventory 1391
tunis 1390
i. 1390
operational 1390
mend 1389
edging 1389
operated 1389
homicide 1388
associate 1388
difference 1388
poison 1388
strange 1387
bounced 1387
initially 1386
communique 1386
jane 1386
pigs 1386
posing 1386
kampala 1385
planting 1385
croats 1384
recruits 1384
franc 1384
debated 1383
mtv 1383
signature 1383
hui 1382
desk 1382
busiest 1382
hatred 1382
danny 1381
internationally 1380
guarded 1380
long-standing 1380
dismal 1380
chambers 1379
weeklong 1379
flame 1378
disclose 1378
fisheries 1378
wooden 1377
mills 1377
tipped 1376
holed 1376
sinai 1376
heathrow 1376
rubin 1376
six-nation 1375
brace 1375
pro-western 1375
pill 1375
exceed 1374
bones 1374
investigates 1373
honoring 1373
winston 1373
financially 1372
leon 1372
pivotal 1372
flower 1372
grid 1370
nightmare 1370
cruz 1369
moussa 1368
unification 1368
helm 1367
mcveigh 1367
glimpse 1366
raced 1366
tribune 1366
barclays 1366
apply 1366
embarrassing 1365
reliance 1364
mansion 1364
xi 1364
restricted 1363
deemed 1363
lesbian 1362
bowling 1361
botched 1361
ex-wife 1361
brewer 1360
masked 1360
beautiful 1359
indicators 1359
affirmative 1359
canberra 1359
pirate 1358
goalie 1358
harlem 1358
evans 1358
ralph 1358
o 1358
wide-ranging 1358
devoted 1358
jennifer 1357
tome 1357
randy 1357
generations 1357
bhp 1356
deport 1356
revamp 1356
q 1356
belarusian 1356
libel 1355
buyer 1355
offenses 1355
shutting 1355
dame 1355
seemingly 1355
lima 1354
flurry 1354
trim 1353
roughly 1352
conductor 1352
rupert 1351
qinghai 1351
looting 1351
golan 1351
plague 1351
grace 1351
buffett 1351
head-on 1350
lets 1350
biotech 1350
###.##-## 1350
pressured 1349
woo 1349
inter-korean 1348
marry 1348
super-g 1348
lowers 1348
eliminating 1347
legally 1347
timorese 1347
concentration 1347
jenin 1346
concluding 1346
aznar 1346
properly 1346
addresses 1346
stomach 1345
likes 1345
maldives 1345
raged 1344
narrowed 1344
decrease 1344
franco 1344
renewal 1344
flock 1343
##th-century 1342
unleashed 1341
pig 1341
organizer 1341
battery 1340
flawed 1340
brett 1339
prompts 1339
cache 1339
epa 1339
footage 1338
deportivo 1338
adopting 1338
stream 1338
coins 1338
acceptance 1338
providers 1337
spacewalk 1337
clearly 1337
profitable 1337
mom 1337
vault 1336
exported 1336
cautioned 1336
nerve 1336
exodus 1335
us-based 1334
graduates 1334
firearms 1334
wenger 1333
addressing 1333
ore 1333
convert 1333
attracting 1333
broadcasts 1332
ge 1332
two-thirds 1332
prostate 1332
andres 1332
emerges 1332
limiting 1332
afc 1331
nawaz 1331
folk 1331
fundamental 1331
cooperating 1330
juniors 1330
faulty 1330
psychological 1329
hires 1328
neo-nazi 1328
mortgages 1328
shrinking 1327
elephants 1327
bottles 1327
non-governmental 1327
foe 1327
reid 1327
minors 1327
stockpiles 1327
confidential 1326
worldcom 1326
oliver 1326
regained 1325
ontario 1325
bracing 1324
tumbling 1324
runners 1323
tobago 1323
reprieve 1323
chiang 1323
diocese 1323
cats 1323
hurting 1322
suppliers 1322
reference 1322
gansu 1322
washed 1322
cheered 1321
state-controlled 1321
cafe 1321
vacant 1321
squads 1321
handled 1321
cleaning 1321
bullet 1320
viewed 1320
acquiring 1320
introduces 1319
psychiatric 1319
elusive 1319
particular 1319
chronic 1319
gaming 1318
#-month 1318
fertilizer 1318
showcase 1318
slum 1318
visitor 1317
minh 1317
spies 1317
glance 1317
lie 1317
sponsored 1316
rogue 1316
satisfaction 1316
nebraska 1316
cluster 1316
museums 1315
stevens 1314
bleak 1314
abortions 1313
powered 1313
baker 1313
blazers 1312
transform 1312
minibus 1311
va. 1311
imposes 1311
ratification 1311
nixon 1311
slave 1310
cheap 1310
qaeda 1310
jean-bertrand 1310
mineral 1310
hashish 1309
bizarre 1309
settler 1309
gujarat 1308
chef 1308
undercover 1307
fannie 1307
maneuvers 1307
tonga 1306
mclaren 1306
drafting 1306
duma 1305
concept 1304
landscape 1304
prostitutes 1304
weakens 1303
seven-year 1303
scandinavian 1302
steroid 1302
contemporary 1301
undermining 1301
durable 1301
monte 1301
develops 1300
shelves 1300
yale 1300
alonso 1299
azerbaijani 1299
generale 1299
preseason 1299
mladic 1299
bourses 1299
finger 1298
shelters 1298
ringgit 1298
oic 1298
mobil 1297
normally 1297
welsh 1297
fourteen 1297
networking 1297
packages 1297
lra 1297
contamination 1296
pray 1296
liquor 1296
clarke 1295
al-jazeera 1295
o'neill 1295
liver 1295
shevardnadze 1295
follows 1294
koizumi 1294
kumaratunga 1293
fiction 1293
ecowas 1293
abn 1293
saudis 1293
baseman 1292
yao 1292
complications 1292
consolidation 1292
buchanan 1291
bargain-hunting 1291
innovation 1291
schalke 1291
loose 1291
dismantling 1290
juvenile 1290
swiftly 1290
revise 1290
workforce 1290
parma 1289
wnba 1289
ana 1289
chiluba 1288
revered 1288
craft 1288
emirate 1288
resource 1288
steroids 1288
cracked 1288
benin 1287
superior 1287
wrongdoing 1287
burundian 1286
ensuring 1286
ink 1286
four-month 1285
barracks 1284
chaotic 1284
yankee 1284
supporter 1284
akbar 1284
trademark 1283
e 1283
banana 1282
n.j. 1282
describes 1281
penn 1281
substitute 1281
petrochemical 1281
faithful 1281
addressed 1281
mosques 1280
blitz 1280
hide 1280
helen 1279
tired 1278
instruments 1278
cheers 1278
salmon 1277
indicates 1277
dive 1277
##-kilometer 1276
finalized 1276
aaron 1276
gerry 1276
towers 1276
auctioned 1276
stressing 1275
musician 1275
coyotes 1275
portfolio 1275
health-care 1274
'm 1274
cracking 1274
venues 1273
improper 1273
du 1273
paulson 1273
authoritarian 1272
attacker 1272
finale 1271
pink 1271
motorists 1271
wba 1271
elian 1271
susan 1271
robertson 1270
blows 1269
downgraded 1269
commanding 1269
walkout 1268
shah 1268
amp 1268
lucky 1268
sponsors 1267
confirming 1267
legitimate 1267
clemens 1267
v. 1266
tragic 1266
efficient 1266
lionel 1265
predicting 1265
tally 1265
constructive 1265
middlesbrough 1265
legs 1264
actively 1264
phnom 1263
ministries 1263
committees 1263
mickelson 1262
record-breaking 1262
year-old 1262
b-shares 1262
charities 1261
ulster 1261
chernobyl 1261
dakar 1261
crowned 1261
disorder 1261
characters 1260
rifles 1259
basin 1259
solving 1259
publishers 1258
liberties 1258
kitchen 1257
amro 1257
lane 1257
applications 1257
reign 1257
theaters 1257
mourinho 1256
nam 1256
exploring 1256
spirits 1256
renegade 1255
ballistic 1255
collecting 1255
inevitable 1255
steadily 1255
lleyton 1255
shake-up 1254
enthusiasm 1254
strikers 1254
meaning 1254
succeeded 1254
expedition 1253
toshiba 1253
equatorial 1253
caucus 1253
autopsy 1253
ritual 1253
blackout 1252
cloning 1252
unmanned 1252
fundraising 1252
rig 1252
verizon 1252
repatriated 1251
ryanair 1251
dale 1251
mull 1250
olympiakos 1250
patriot 1249
privatisation 1249
swaziland 1248
julia 1248
khamenei 1248
lahore 1248
amounted 1248
luther 1247
defamation 1247
uproar 1246
journalism 1246
clinics 1245
timing 1245
sixteen 1245
chevron 1245
hornets 1245
egyptians 1244
penh 1244
array 1244
certainly 1244
cure 1243
presumed 1243
competitiveness 1243
investigative 1243
pretoria 1243
oas 1243
feeding 1243
cisco 1242
heir 1242
reorganization 1241
introducing 1241
pti 1239
complain 1239
unauthorized 1239
strife 1239
#m 1239
senegalese 1239
kafelnikov 1238
plug 1238
enjoying 1238
minds 1238
industrialized 1238
evo 1238
accusation 1238
nose 1237
liquid 1237
tripoli 1237
alzheimer 1237
pills 1237
franklin 1236
suspicions 1236
muster 1236
jolts 1236
antiquities 1236
heats 1236
britney 1236
societe 1236
till 1235
diamondbacks 1235
turbulence 1234
indefinite 1234
mercedes 1234
dissent 1234
workplace 1233
broadband 1233
resigning 1233
pairs 1233
trump 1233
pro-government 1232
airplanes 1232
allegation 1232
malcolm 1232
rudd 1232
treasure 1231
complaining 1231
rushing 1231
climbers 1230
butterfly 1230
attendance 1230
chooses 1230
fugitives 1229
dalian 1229
contempt 1229
moo-hyun 1229
match-fixing 1229
undergoes 1229
augusto 1229
commuters 1229
bribe 1228
panathinaikos 1228
greatly 1227
anchor 1227
djibouti 1227
assigned 1226
chasing 1226
copy 1226
painter 1226
dispatched 1226
gloom 1226
shifted 1225
subdued 1225
employer 1225
comfort 1225
turf 1225
episcopal 1225
fulfill 1225
anti-semitism 1224
cease 1224
alfred 1224
russell 1224
nights 1224
branded 1224
youngsters 1224
lauds 1223
lend 1223
anti-semitic 1223
renewable 1223
gloomy 1222
apple 1222
linebacker 1222
dayton 1221
approached 1221
globalization 1221
monarch 1220
objects 1220
sounded 1219
leverkusen 1219
shortfall 1219
owing 1219
elena 1219
naked 1219
steer 1218
diamonds 1218
billion-dollar 1218
pioneering 1218
dvd 1218
depressed 1218
whatever 1218
lots 1217
detectives 1217
disqualified 1217
gradually 1217
relieved 1217
leagues 1217
escalated 1217
dock 1217
fault 1216
database 1216
bow 1215
lusaka 1215
walks 1215
articles 1215
archdiocese 1215
rebounding 1214
poisoned 1214
icy 1214
pak 1214
artifacts 1213
yu 1213
kashmiri 1213
indonesians 1212
spectators 1212
programming 1212
aground 1212
revealing 1212
disappointment 1211
wipe 1211
spitzer 1211
chandrika 1210
steelers 1210
transfers 1210
hangs 1210
rover 1210
intensifies 1210
remembers 1210
seals 1210
distribute 1210
huang 1209
chocolate 1209
alleges 1209
manmohan 1209
rams 1209
christ 1209
shutout 1208
happen 1208
expires 1208
anticipation 1208
obstacle 1208
vermont 1207
cruised 1207
metres 1207
amend 1206
pornography 1206
three-week 1206
defenses 1206
punch 1206
balloon 1205
packers 1205
trash 1205
beloved 1205
dagestan 1204
sum 1203
##-point 1203
cheating 1203
lays 1202
reduces 1202
touring 1202
magazines 1202
margins 1201
extortion 1201
watson 1201
scenic 1200
guild 1200
frequent 1200
referees 1200
growers 1200
campaigners 1200
sophisticated 1200
stir 1199
pot 1199
attendants 1199
audiences 1199
second-seeded 1198
marcus 1198
bolstered 1197
novak 1197
duel 1197
newborn 1197
nashville 1197
addis 1197
casts 1195
gul 1193
neutral 1193
negligence 1193
observed 1193
crashing 1193
acknowledges 1193
lao 1193
philips 1193
medium 1192
archipelago 1192
teresa 1192
dispatch 1192
czar 1191
innocence 1191
handball 1190
afford 1190
operative 1190
hijack 1190
punjab 1190
rarely 1190
borussia 1190
portrait 1189
casey 1189
inadequate 1189
santiago 1189
ultimate 1189
credible 1189
represented 1188
pit 1188
households 1188
summons 1188
two-run 1188
finalize 1187
carpet 1187
proves 1187
wb 1187
rebel-held 1186
aerial 1186
tap 1186
upgraded 1185
eradicate 1185
relegation 1185
andean 1184
obesity 1184
squeeze 1184
obligations 1184
briefing 1184
skepticism 1183
inland 1183
modernize 1183
collins 1183
reflects 1183
displayed 1183
macapagal 1182
transformed 1182
supplying 1182
repeal 1182
misery 1182
contests 1182
courses 1181
lovers 1181
tall 1181
class-action 1181
balls 1181
gala 1181
strains 1180
sticks 1180
generated 1180
strife-torn 1180
heilongjiang 1179
fidelity 1179
dismissing 1179
highlighting 1179
kinmen 1178
casinos 1178
indoors 1178
flexibility 1177
lara 1177
monarchy 1177
polar 1177
booked 1177
ecuadorian 1176
assume 1176
hostilities 1176
squash 1176
sleeping 1176
spector 1176
secretariat 1176
regarded 1175
kid 1175
identification 1175
thorpe 1175
multilateral 1175
turkmen 1175
max 1174
warne 1174
circumstances 1174
stimulate 1174
bargaining 1173
fueling 1173
wrist 1173
indian-controlled 1172
rafik 1172
magnate 1172
geological 1172
helsinki 1171
wolfowitz 1171
disrupting 1171
existence 1170
instant 1170
portsmouth 1170
creative 1170
comoros 1170
collide 1170
mudslides 1170
slashing 1170
indicate 1170
memphis 1170
antarctic 1169
antara 1169
truckers 1169
jeffrey 1168
gubernatorial 1168
telescope 1168
bogota 1168
impending 1168
influx 1167
eritrean 1167
lobbyist 1167
grief 1167
xiaoping 1166
traces 1166
mergers 1166
engulfed 1166
estranged 1166
abolish 1165
oprah 1165
wheel 1165
cabinet-level 1165
whitewater 1165
comesa 1164
landmine 1164
teach 1164
lodged 1164
default 1164
brewing 1164
mercantile 1164
bermuda 1163
admiral 1163
#,###-year-old 1163
convincing 1163
saga 1162
totaling 1162
dominates 1162
costas 1162
kibaki 1161
describe 1161
ferrero 1161
#-day 1160
bahraini 1160
doomed 1160
guardian 1160
placing 1159
manhunt 1159
stricter 1159
homered 1158
predominantly 1158
iconic 1158
bets 1158
els 1158
organs 1157
subsidy 1157
expels 1157
pavel 1157
rocker 1157
felony 1156
mekong 1156
invitational 1156
generic 1156
ibf 1155
kenyans 1155
divisive 1155
exam 1155
pradesh 1155
haitians 1154
maurice 1154
filling 1154
ming 1154
aggressively 1154
grocery 1153
deliberately 1153
subscribers 1153
warmup 1153
makeshift 1152
explorer 1152
toddler 1152
encourages 1152
multibillion-dollar 1151
lien 1151
intensifying 1151
dwindling 1150
xiamen 1150
kenny 1150
breakdown 1150
logistics 1150
sliding 1150
smoothly 1150
medicaid 1150
outcry 1149
holbrooke 1149
aboriginal 1149
represents 1148
swimmers 1148
wei 1148
tabloid 1148
ugly 1147
saarc 1147
routed 1147
serbia-montenegro 1146
sevens 1146
###,###-dollar 1145
mph 1145
k. 1145
banco 1145
intimidation 1145
sas 1145
heal 1144
henin 1144
missionary 1144
stormy 1144
bitterly 1144
enhanced 1144
khodorkovsky 1143
vaccination 1143
fms 1143
daewoo 1143
dire 1143
secondary 1143
guaranteed 1142
wallabies 1142
rebuke 1142
amtrak 1142
accelerated 1142
lobbyists 1142
ultimately 1141
dissolved 1141
recruitment 1141
liaison 1141
eagle 1140
duncan 1140
distributing 1140
distributed 1140
lt. 1140
cheering 1140
homers 1139
colorful 1138
confronted 1138
abdel 1138
delicate 1138
greet 1138
feuding 1137
diversity 1137
tribesmen 1137
outline 1137
argue 1137
wiped 1137
purchasing 1137
starring 1136
drafted 1136
drastic 1136
logging 1136
voyage 1136
creator 1136
##-meter 1136
attracts 1135
clearance 1135
drills 1135
convictions 1135
patch 1134
undefeated 1134
concacaf 1134
tata 1134
pleas 1134
detail 1133
reminder 1133
mulling 1133
trends 1133
swings 1133
phillips 1133
jilin 1133
demolition 1132
seeded 1132
denouncing 1131
proliferation 1131
generate 1131
invested 1130
fare 1130
telecommunication 1130
slavery 1130
professors 1129
##-foot 1129
best-known 1129
complicated 1128
tri-nations 1128
imperial 1128
backup 1127
anonymous 1127
famine 1127
leaks 1127
object 1127
memo 1127
collaboration 1126
speeches 1126
rossi 1125
mourned 1125
random 1125
namibian 1124
sacks 1124
notre 1124
associations 1124
capped 1123
gibson 1123
rematch 1123
scramble 1122
cd 1122
smokers 1122
symphony 1122
fta 1122
freedoms 1121
smallest 1121
twenty## 1121
improperly 1121
sterling 1121
timber 1120
finalists 1120
rent 1120
expos 1120
taekwondo 1119
hackers 1119
clinical 1119
smile 1119
sheik 1119
techniques 1119
hazardous 1119
chains 1119
spends 1119
circus 1118
long-delayed 1118
thwarted 1118
requirement 1118
detect 1118
owed 1117
cop 1117
countdown 1117
catastrophic 1116
procession 1116
dar 1116
pricing 1116
backdrop 1116
freshman 1116
mccartney 1115
glasgow 1115
anew 1115
disruption 1115
center-right 1115
elbow 1114
enjoys 1114
geithner 1114
achieving 1113
nike 1113
shrink 1112
yorkers 1111
twa 1111
tune 1111
junk 1111
antarctica 1111
enhancing 1111
compact 1110
canadiens 1110
diverted 1110
earliest 1110
wallace 1110
refineries 1109
benfica 1109
cousin 1109
euro-zone 1109
ababa 1109
situations 1108
procurement 1108
uniforms 1108
rowing 1108
rafsanjani 1107
dual 1107
conventional 1107
relevant 1106
papua 1106
lewinsky 1106
departed 1106
shaking 1106
paralympic 1105
wcup 1105
ike 1105
podium 1105
designers 1104
compaq 1104
massacres 1104
surprises 1104
discharged 1104
cambridge 1104
lacks 1104
forging 1103
free-trade 1103
chronicle 1103
haas 1103
billed 1103
webber 1103
archives 1103
clan 1102
kurdistan 1102
premature 1102
grade 1102
mill 1102
kodak 1101
clinches 1101
curtain 1101
provocative 1101
worshippers 1101
entrepreneur 1101
labels 1100
justine 1100
midst 1100
seniors 1100
rasmussen 1099
brilliant 1099
ghanaian 1099
hood 1098
polanski 1098
pregnancy 1098
bnp 1097
promoter 1097
conflicting 1097
accidental 1097
abandoning 1097
destined 1097
oilers 1097
stirs 1097
cricketers 1097
blowing 1096
weld 1096
rank 1096
moldovan 1096
episode 1096
alter 1096
roche 1096
bicycle 1096
navigation 1096
reynolds 1095
checkpoints 1095
treasures 1094
emmy 1094
zidane 1094
knocking 1094
farmland 1094
pianist 1093
manufactured 1093
hi-tech 1092
foil 1092
willie 1092
long-range 1092
goodbye 1092
castle 1092
jeopardy 1091
daimler 1091
disappointed 1091
deter 1091
negotiation 1090
yi 1090
isaf 1090
paraguayan 1090
consideration 1090
jamie 1089
sensation 1089
seaside 1089
perot 1089
tourney 1089
checking 1088
cops 1088
deploying 1088
purchased 1088
deepened 1088
nigerians 1088
format 1088
exiles 1087
brushed 1087
taxation 1087
catches 1087
nuri 1087
devastation 1086
laboratories 1086
interstate 1086
extinction 1086
oscar-winning 1086
treasurer 1085
blown 1085
reliable 1085
expression 1084
johansson 1084
reputed 1084
fina 1084
parked 1083
types 1083
installations 1082
quitting 1082
versus 1082
wet 1082
sickened 1082
concerts 1082
clubhouse 1082
renovation 1082
sharemarket 1081
paula 1081
inches 1080
cash-strapped 1080
plots 1080
mel 1079
disruptions 1079
combine 1079
heartland 1079
ransom 1079
patrolling 1079
ruble 1079
ltd 1078
banner 1078
mr. 1078
implemented 1078
ahern 1077
worsen 1077
whitman 1077
courage 1077
latter 1077
catcher 1077
outlets 1076
one-third 1076
desperately 1076
kraft 1076
reversal 1076
award-winning 1075
romantic 1075
stretched 1075
schoolchildren 1075
teen-ager 1075
occasion 1074
substantially 1074
starter 1074
###-million-dollar 1073
entitled 1073
reinstated 1073
greens 1073
insist 1072
treatments 1072
funded 1071
pipelines 1071
starbucks 1071
pro-independence 1071
kilometres 1070
cooling 1070
darkness 1070
nicholas 1070
keane 1070
cos. 1070
bullish 1070
spilled 1070
juppe 1069
downgrade 1069
blackwater 1069
jaffna 1069
fahd 1068
fading 1068
moslems 1068
barbados 1068
lied 1068
tallest 1067
santander 1067
flagging 1066
countryside 1066
ablaze 1066
demolished 1066
tainan 1066
jia 1065
villepin 1065
rita 1065
nobody 1065
pleading 1065
werder 1065
bonn 1065
punitive 1064
flowing 1063
headlines 1063
henman 1063
listen 1063
consultation 1063
suriname 1063
ecstasy 1063
es 1062
delegate 1062
realize 1062
postponement 1062
idaho 1062
censorship 1062
pablo 1062
sulawesi 1062
columnist 1062
adventure 1061
painted 1061
cliff 1061
newark 1061
parmalat 1060
hottest 1060
shipped 1060
repression 1060
aware 1060
saab 1060
sits 1060
kronor 1059
ordeal 1059
decreased 1059
components 1059
robot 1059
praising 1059
packing 1058
coke 1058
sanctuary 1058
g-## 1058
sicily 1058
mci 1058
,###.## 1058
toured 1058
infamous 1057
accompanied 1057
wives 1057
observation 1057
sihanouk 1057
height 1057
dad 1057
profitability 1057
chanting 1056
disposal 1056
menem 1056
chairwoman 1056
overs 1056
co-founder 1056
refrain 1056
reclaim 1055
forgotten 1055
scoreless 1055
editorial 1055
monsoon 1055
pocket 1055
jean-claude 1055
pumping 1054
eventual 1054
personally 1054
hoax 1053
post-election 1053
breeders 1053
internationals 1053
didier 1053
darren 1053
opposite 1052
reed 1052
exceeded 1052
roared 1052
integrated 1052
sacred 1051
tent 1051
revelations 1051
volatility 1051
id 1050
absent 1050
forever 1050
suggestion 1050
print 1050
respective 1050
attraction 1050
lavrov 1049
premium 1049
dug 1049
eindhoven 1049
s&amp;p 1048
bargains 1048
trek 1048
bike 1048
parcel 1048
elvis 1047
guidance 1047
redskins 1047
neil 1047
marching 1047
nestle 1047
readies 1047
pitches 1046
compliance 1046
sunderland 1046
lavish 1046
eduard 1046
succession 1046
earnhardt 1046
hull 1046
concentrate 1045
rounded 1045
tribes 1045
colts 1045
stadiums 1045
radicals 1044
breeding 1044
anti-graft 1044
unseeded 1044
shipyard 1044
runner-up 1044
coroner 1044
eurostat 1044
assures 1043
background 1043
sagging 1043
adequate 1043
dinosaur 1042
guided 1042
hashimoto 1042
bypass 1041
acid 1041
reunited 1041
astronomers 1041
thanked 1041
kinshasa 1040
observatory 1040
doug 1040
keys 1040
jiangxi 1040
offerings 1040
populist 1040
tossed 1039
innovative 1039
assumed 1039
relax 1039
unspecified 1039
heels 1038
guizhou 1038
monster 1038
corpses 1038
evaluation 1037
midway 1037
corinthians 1037
touted 1037
misleading 1037
overcoming 1037
gibraltar 1036
breakfast 1036
judo 1036
tuition 1036
wigan 1036
yassin 1036
luggage 1035
transaction 1035
reductions 1035
moya 1035
rejoin 1034
mwai 1034
al-qaida-linked 1034
arrangement 1034
romance 1034
zhou 1033
physics 1033
explode 1033
adelaide 1033
assaults 1033
evolution 1032
correction 1032
fundamentalists 1032
wolf 1032
soybeans 1032
stall 1032
belief 1031
metropolis 1031
birthplace 1031
andersen 1031
campaigner 1031
coma 1031
loud 1030
safrica 1030
vikings 1030
stave 1030
personality 1030
connections 1030
captive 1029
examined 1029
steelmaker 1029
brush 1029
villarreal 1028
hammered 1028
viacom 1028
affiliate 1027
tournaments 1027
assisted 1027
tomas 1027
iverson 1027
inviting 1027
season-ending 1026
outraged 1026
complains 1026
gustav 1026
capsized 1026
revision 1025
hepatitis 1025
arabic 1025
sergeant 1025
tidal 1025
locals 1024
snatched 1024
installation 1024
blackhawks 1024
polo 1024
tumor 1024
canyon 1023
bread 1023
spencer 1023
substances 1023
loyalists 1023
peacekeeper 1023
meningitis 1023
acclaimed 1023
pre-dawn 1023
#,###.##-# 1023
shirt 1022
digging 1022
winding 1022
ethanol 1022
locations 1022
thrashers 1022
vodafone 1022
maize 1022
assaulted 1021
ramirez 1021
gerald 1021
solved 1020
attends 1019
annika 1019
provoked 1019
doubling 1019
twitter 1018
jeremy 1018
grouping 1018
month-long 1017
pfp 1017
sack 1017
derek 1017
protracted 1017
kostunica 1017
flaws 1017
flexible 1017
pageant 1017
homage 1017
slogans 1017
karen 1017
touchdown 1016
center-left 1016
flamengo 1016
smash 1016
brigades 1015
proving 1015
reinforcements 1015
debating 1015
pupils 1015
heavyweights 1014
featured 1014
bottle 1014
clarify 1014
mess 1014
harmony 1014
countrywide 1014
bible 1013
vie 1013
nationally 1013
by-election 1012
dioxide 1012
half-century 1012
rugged 1011
cart 1011
credited 1011
reply 1011
shaquille 1011
commits 1011
serves 1011
spared 1010
slumps 1010
cyber 1010
maid 1010
cave 1010
classical 1010
holland 1010
winless 1009
salvadoran 1009
scorer 1009
prosecuted 1008
nec 1007
sore 1007
justify 1006
protectionism 1006
blunt 1006
assure 1006
skiers 1005
pointing 1005
topic 1005
math 1004
catching 1004
generating 1004
dragging 1004
concorde 1003
scope 1003
fiorentina 1003
e-mails 1003
produces 1003
tumbles 1003
aired 1003
alarming 1002
knock 1002
drifted 1002
non 1002
joke 1002
attached 1002
competitor 1002
trichet 1001
experiments 1001
dong 1001
artistic 1001
lover 1001
nine-month 1000
butler 1000
brisk 999
moammar 999
confederations 999
appropriate 999
sonia 998
chadian 998
canary 998
licensing 998
thatcher 997
face-to-face 997
ne 997
jackie 997
badawi 997
slick 997
overwhelmed 996
auctions 996
coca 996
billiton 996
dakota 996
classroom 996
funny 995
drone 995
peoples 995
purposes 995
marches 994
pattern 994
outfit 994
midterm 994
importing 993
cream 992
sorry 992
uneasy 992
dome 992
beverage 992
mitterrand 992
lighting 992
india-controlled 992
leonard 992
bangguo 992
nalbandian 991
hafez 991
bruno 991
jse 991
limbo 991
shine 991
mistakenly 991
absolute 991
recommendation 991
t. 991
salaam 991
kuerten 991
permanently 990
canceling 990
director-general 990
brisbane 990
sit-in 990
bolstering 990
vieira 990
double-digit 990
mock 990
non-proliferation 990
saleh 989
mention 989
tbilisi 989
setbacks 988
davydenko 988
freezes 988
printing 988
concession 988
proclaimed 988
ba 988
murphy 988
kamal 988
tb 988
breathing 988
approving 987
halliburton 987
meddling 987
hernandez 987
comparison 987
rainfall 986
checked 986
breakup 986
sebastien 986
parliamentarians 985
okinawa 985
syndicate 985
websites 985
ashore 985
doh 985
sacking 985
stuart 984
rao 984
bailey 984
outlaw 984
imam 984
greeks 983
daytona 983
lebed 983
sufficient 983
nyse 983
battlefield 983
marino 983
kilos 983
fury 983
hurts 982
exploitation 982
manner 982
springs 982
monk 982
doubtful 982
predictions 981
hardware 981
attributed 981
jackets 980
administrators 980
dominating 980
purpose 980
acknowledging 980
flows 980
hubble 980
rogge 979
ecological 979
slashes 979
clout 978
nonprofit 978
selective 978
nabbed 978
teen-age 978
macapagal-arroyo 978
patriotic 978
clampdown 978
manning 977
hell 977
winfrey 976
gauge 976
rebuffed 976
candy 976
lisa 976
reuters 976
unveiling 976
throne 976
widen 975
hindus 975
zimbabweans 974
chechens 974
trace 974
communism 974
thierry 974
nkorean 974
undermined 974
fractured 973
renewing 973
defects 973
harmful 973
touches 973
crossings 973
kirk 973
nod 973
boards 972
wbo 972
rental 972
fairly 972
pause 972
implications 971
medication 971
ponting 971
waging 971
nominate 971
mou 971
infectious 970
mobutu 970
mickey 970
tracy 970
racketeering 970
gripped 970
lowering 969
traditionally 969
bowlers 969
reservoir 969
sana 968
bulk 968
manufacture 968
diverse 968
interfering 968
justified 968
conn. 968
distributor 968
gears 967
arap 967
ridge 967
denial 967
accelerating 967
furor 967
switched 967
vanished 967
infringement 966
violates 966
tame 966
starr 966
transformation 966
converted 966
beverly 965
anywhere 965
dancer 965
containers 965
certificates 965
welcoming 964
clemency 964
lightweight 964
pirated 964
cheaper 964
audio 964
statewide 964
reelection 964
anti-dumping 963
touts 963
pulitzer 963
acquittal 963
capturing 963
feelings 962
caucuses 962
fast-growing 962
totally 962
stalls 962
shrank 961
coa 961
mauritanian 961
define 961
petra 960
totaled 960
interfere 960
tendulkar 960
webb 960
sacrifice 960
circulation 960
authors 960
rotterdam 959
nouri 959
mls 959
monitored 959
libby 959
rode 958
reclusive 958
lhasa 958
embryonic 958
canterbury 958
approaches 958
regularly 958
playwright 958
q. 957
delaware 957
appearing 957
reservations 957
weary 957
temperature 957
lifeline 956
ki 956
embarked 956
affects 956
walesa 956
acquires 956
undecided 956
cosmetics 956
hamstring 955
parallel 955
four-time 955
low-income 955
spokesperson 954
surrenders 954
guru 954
sotheby 954
flashpoint 954
overturns 953
primakov 953
nun 953
grandmother 953
cannabis 953
ningxia 953
capping 953
feds 952
contributing 952
protections 952
anti-american 952
harrison 951
screens 951
aided 951
fossil 951
feyenoord 951
ages 951
thrilling 951
compulsory 950
rages 950
zia 950
scaled 950
sunny 950
button 950
prospective 950
baggage 949
jiaxuan 949
thus 949
molestation 949
perjury 949
metric 948
inject 948
ivanisevic 948
kasparov 948
pour 948
fcc 948
grandson 947
colo. 947
#\/# 947
charlton 947
teeth 947
distant 946
climber 946
decades-old 946
stark 946
pouring 946
palermo 946
revoked 945
mortars 945
racially 945
jonas 945
alarmed 944
opinions 944
dismantled 944
rudy 944
bolt 944
topping 944
elders 943
waving 943
persecution 943
probed 943
bodyguard 943
tents 943
destinations 943
fargo 942
languages 942
blacklist 942
relentless 942
trawler 942
descended 942
appoint 941
rammed 941
preparatory 941
veterinary 941
inspiration 941
swat 940
sub 940
evacuations 940
buffer 940
entirely 940
rely 940
dos 940
oxford 940
modernization 939
intact 939
ruth 939
watches 938
thigh 938
teen-agers 938
titans 938
snowfall 938
tape 937
physician 937
tuna 937
technique 937
underwater 937
tankers 936
cockpit 936
torched 936
ghost 936
legality 936
vigil 936
lap 936
kurt 935
studied 935
visible 935
ngos 935
length 935
possessing 935
choppy 935
warlords 935
kurd 934
barnes 934
relaxed 934
advertisements 934
salim 934
broadcasters 934
downer 934
sing 934
fact-finding 933
fraudulent 933
cent 932
thomson 932
consult 932
pistol 932
soup 932
raft 932
damon 931
alcoa 931
submarines 931
delegations 931
kent 931
confronting 931
back-to-back 930
participated 930
speculative 929
prudential 929
medium-sized 929
bullion 929
disagreement 929
icelandic 929
tibetans 929
elder 929
idb 929
propelled 928
o'brien 928
n 928
bodyguards 928
narrows 928
steffi 928
centennial 928
guillermo 928
airborne 928
robbie 928
recipients 927
vw 927
lou 927
undersea 926
matchup 926
thank 926
ann 926
enduring 926
equipped 925
bosnia-herzegovina 925
punishing 925
fundraiser 925
memoir 925
refining 925
lg 925
mindanao 925
andreas 925
chargers 925
constant 924
broadly 924
airliners 924
bengal 924
lawless 924
float 924
jankovic 924
freeway 924
rim 924
reviewed 923
##-minute 923
pullback 923
goran 923
freeing 923
shedding 923
pandas 923
groundbreaking 922
tumultuous 922
censure 922
homosexuality 922
playboy 922
ernie 921
embroiled 921
palmer 921
factional 921
bats 921
detaining 921
dissolve 921
leicester 921
canucks 921
emphasis 920
sticking 920
kickbacks 920
three-run 920
plaza 919
shouting 919
cooper 919
eyeing 919
co-operation 919
displays 919
anthem 919
projections 919
upgrading 919
petrobras 918
shores 918
standstill 918
rotation 918
petraeus 918
populated 917
adrian 917
habitat 917
urgently 917
milf 917
worsened 916
three-game 916
novartis 916
coveted 916
qualification 916
hint 916
domination 916
coin 916
animated 916
rides 916
dependence 916
brady 915
henin-hardenne 915
gabriel 915
cows 915
specter 915
outsourcing 915
condoms 915
excerpts 915
liberals 914
breath 914
imagine 914
stun 914
attractive 914
hormone 914
photographer 914
tripled 914
steering 914
budgets 913
hasina 913
plains 913
woodward 913
restricting 913
battleground 913
mallorca 912
odd 912
snowstorm 912
throat 912
infants 912
bite 912
lacking 912
humor 912
anti-missile 911
everywhere 911
employed 911
ifor 911
jumbo 911
incomes 911
organic 910
congressmen 910
transparent 910
chorus 909
toledo 909
seahawks 909
freely 909
flared 909
faults 909
wrangling 909
aquino 908
dragon 908
excellent 908
festivities 908
liability 908
filming 908
r 907
expressway 907
capitals 907
dusty 907
defenders 907
peugeot 907
prolific 907
initiated 906
questionable 906
preferred 906
alleviate 906
montgomery 906
nuclear-armed 906
rainy 906
gorbachev 905
lit 905
fantasy 905
addiction 904
faa 904
bryan 904
vegetables 904
lucent 903
lebron 903
trafficker 903
practical 903
holmes 903
labeled 903
haider 903
wellington 903
relieve 902
money-laundering 902
mammoth 902
##km 902
non-aligned 902
deepens 902
belmont 902
drugmaker 902
tying 902
wondering 902
indicator 902
lords 902
sewage 902
multimedia 901
nickel 901
thoughts 901
olive 901
defused 901
jeep 901
engaging 900
stumps 900
grizzlies 900
publishes 900
noise 900
considerable 900
medley 900
n.c. 900
inched 899
trafford 899
wolves 899
disarming 899
footballer 898
lanqing 898
intend 898
mt. 898
depart 897
montgomerie 897
four-nation 897
vojislav 897
allocated 896
cyberspace 896
pudong 896
supervisory 896
shields 896
arranged 896
northridge 896
revamped 896
gateway 896
qwest 896
han 895
hijacker 895
defect 895
torturing 895
middleweight 895
rattles 895
duck 895
continuous 895
mum 894
reactions 894
performance-enhancing 894
allawi 894
stirred 893
corsica 893
enact 893
cristiano 893
wore 893
illnesses 893
kinds 892
facto 892
auditors 892
three-way 892
rolls-royce 892
peacemaking 892
ratifies 892
halloween 892
exposition 892
exploit 891
colon 891
cruises 891
rene 891
thais 891
presenting 891
buzz 891
stearns 891
publications 891
signatures 891
iberia 891
bug 890
protester 890
springboard 890
pile 890
basement 890
lauded 890
taught 889
waits 889
anbar 889
smithsonian 889
premiums 889
harold 889
maoists 888
tsunami-hit 888
haze 888
eight-year 888
#,###-meter 887
laser 887
loyalty 887
faded 887
armenians 887
drowning 887
bidders 886
slapped 886
muqtada 886
evacuees 886
pessimistic 886
onslaught 886
timberwolves 886
load 886
inquest 886
vegetable 886
convict 886
extent 885
uphold 885
fisher 885
osaka 885
blessing 885
predators 885
qingdao 885
dementieva 885
manned 885
severed 885
rewards 884
alejandro 884
stuff 884
chart 884
pardoned 884
espn 884
reforming 884
mostar 884
cables 884
presided 884
ing 884
clinching 883
rioters 883
reinstate 883
mwanawasa 883
motherland 882
charm 882
brutality 882
minerals 882
referred 882
memorabilia 882
beatles 882
newcomer 882
hostility 882
pardons 882
registering 882
elbaradei 882
anti-aircraft 882
escalate 881
ethical 881
registers 881
mrs. 880
contracting 880
brave 880
multimillion-dollar 880
african-american 879
swap 879
jpmorgan 879
drive-by 879
blackberry 879
nippon 879
invade 879
brazilians 879
commons 879
plutonium 879
hip-hop 878
liquefied 878
secretive 878
asif 878
financed 878
yearly 877
cyclists 877
payroll 877
silk 877
shocking 876
philippe 876
wahid 876
broaden 876
kuznetsova 876
wisdom 875
tube 875
palestinian-israeli 875
kirchner 875
glitch 875
stefan 874
averting 874
philharmonic 874
soeharto 874
escort 874
loom 873
frenzy 873
interrupted 873
postseason 873
firefight 872
nintendo 872
wanting 872
bands 872
nude 871
eurotunnel 871
vanuatu 871
mice 871
garage 871
mercy 871
edmonton 871
skidded 870
davos 870
bandits 870
vying 870
sad 870
cloned 869
amy 869
remnants 869
far-reaching 869
wilkinson 869
cuomo 869
gotten 869
needy 868
vioxx 868
sef 868
assassin 868
commemorating 868
der 868
guitarist 868
docked 868
lax 868
balloting 868
abacha 867
little-known 867
ronaldinho 867
combatants 867
injunction 867
sailed 867
hard-liners 867
chemistry 866
bombardment 866
tag 866
hiroshima 865
welterweight 865
shillings 865
selloff 865
humiliating 865
transporting 865
healing 864
derivatives 864
mgm 864
moea 864
jittery 863
md. 863
jackpot 863
meter 863
heist 863
nader 863
depleted 863
pontiff 862
swedes 862
fronts 862
snub 862
bulletin 862
y#k 862
greene 862
amelie 862
assembled 862
on-going 861
blazes 861
eclipse 861
no-fly 861
unfairly 860
bertie 860
somewhat 860
high-stakes 859
erik 859
karbala 859
salman 858
expired 858
philanthropist 858
demo 858
charts 858
organised 858
bells 858
moro 857
plotted 857
underscoring 857
mini 857
realized 857
drastically 856
marcelo 856
hunted 856
homosexual 856
snatch 855
anti-abortion 855
cesar 855
amazon.com 855
exec 855
trent 854
baron 854
liechtenstein 854
debuts 854
domingo 854
pitchers 854
intentions 854
brigade 854
sporadic 854
strasbourg 853
mechanical 853
wagner 853
embezzling 853
thirty 853
holiest 852
dupont 852
monrovia 852
clamp 852
vinci 852
designs 852
economically 852
shelled 852
d'italia 852
guarding 851
ngo 851
nextel 851
llc 851
corridor 851
remake 851
strive 851
bullpen 851
binding 851
waugh 850
myung-bak 850
catherine 850
spaniards 850
anders 850
faculty 850
bhutan 850
leather 850
conrad 849
protective 849
wuhan 849
nephew 849
five-month 849
hat-trick 849
pockets 849
loeb 849
netted 849
dutchman 849
cologne 849
prime-time 848
interactive 848
swede 848
headline 848
baja 847
commando 847
skeleton 847
jelena 847
ansa 847
fu 847
evaluate 847
collector 847
trailing 847
asbestos 846
aspects 846
hotly 846
solemn 846
strongholds 846
dae-jung 845
slot 845
earl 845
tornadoes 845
exotic 844
concerted 844
keeper 844
disgruntled 844
reserved 844
embark 843
surpassed 843
cpi 843
goaltender 843
antigua 843
rhode 843
circles 843
lindh 843
aden 843
line-up 843
sideline 843
season-opening 843
wembley 843
coordinating 842
stunt 842
boot 842
harvey 842
rove 842
burnt 842
p 842
ecuadorean 842
hbo 842
oral 842
late-night 842
graeme 841
difficulty 841
al-zarqawi 841
mason 841
recognizes 841
gearing 841
onlytest 841
injure 840
titanic 840
expose 840
bode 840
collapsing 840
nino 840
endured 840
brooks 840
challengers 839
institutes 839
tables 839
polluted 838
klinsmann 838
terrible 838
confession 838
affordable 838
matching 838
mid 838
phenomenon 837
gustavo 837
matched 837
shi 837
jean-pierre 837
revoke 837
ortega 837
breached 837
panels 836
suzuki 836
birdie 836
bloodiest 836
zacarias 835
tentatively 835
experiences 835
marxist 835
bilbao 835
dodge 835
versions 835
policymakers 835
relating 835
alike 835
gunships 834
generous 834
su 834
arrange 834
telefonica 834
kingpin 834
stirring 834
lining 834
browns 833
sepp 833
northrop 833
aggregate 833
infighting 833
bowing 833
vandals 832
carnage 832
descent 832
augusta 832
prize-winning 832
proceeds 832
sample 831
stated 831
hampered 831
picasso 831
orphans 831
pre-election 831
regard 831
disc 831
nowhere 831
sculpture 831
u-## 830
donovan 830
whites 830
shooter 830
hispanics 830
buddha 830
departing 830
ex-premier 830
construct 830
daring 830
emperor 830
kostelic 829
uphill 829
doses 829
preferential 829
airwaves 829
locally 829
disagreements 829
abraham 829
appealing 829
moamer 829
boycotted 828
joel 828
benitez 828
andrea 828
franz 827
speakers 827
involve 827
dampened 827
apartheid 827
assam 827
pizza 827
thunderstorms 827
shakeup 826
third-seeded 826
mauritius 826
aftershocks 826
streamline 826
tasks 826
erupt 826
feast 826
hopkins 825
purported 825
selectors 825
rushdie 825
programme 825
sustain 825
albany 825
bogus 825
masks 824
wicket 824
marat 824
liberalization 824
denis 824
neared 824
ton 824
manny 823
smashing 823
averted 823
genes 823
shrinks 822
excess 822
prized 822
right-hander 822
ravine 822
frequently 822
depend 822
sears 822
seasonal 822
cornerback 822
five-time 822
zardari 822
joschka 821
second-biggest 821
insufficient 821
portrayed 821
kinkel 821
waged 821
jospin 820
peaks 820
overcrowded 820
mired 820
meal 820
primarily 820
cis 820
outer 820
stray 820
cleaner 820
gunfight 820
revises 819
privatize 819
champagne 819
authorize 819
thief 819
ozone 819
blistering 818
foreclosure 818
eighteen 818
ellen 818
jefferson 818
tales 818
invaded 818
malawian 817
outright 817
fielder 817
stabilizing 817
asserted 817
cadbury 817
academics 817
ousting 817
linda 816
tanjug 816
mao 816
invests 816
fast-food 816
embraced 816
acceptable 816
unannounced 816
ravens 816
evangelical 815
whaling 815
marriott 815
surveys 815
ambulance 815
horizon 815
upsurge 815
ratko 815
boundary 815
representation 815
coastline 815
kagame 815
surgeons 815
repeating 814
rutgers 814
mvp 814
homecoming 814
unsafe 814
champs 814
two-stroke 814
bennett 814
chased 814
merchants 813
busch 813
kgb 813
repatriate 813
hideout 813
clandestine 813
skate 813
ciller 813
jam 813
nerves 813
cry 813
patents 812
+ 812
centrist 812
recounts 812
jemaah 812
nazarbayev 812
equestrian 812
louise 812
centre 812
awarding 811
shy 811
allianz 811
depicting 811
casablanca 811
ramon 811
disarray 811
romanians 811
ruined 811
statehood 810
upstate 810
usher 810
removes 809
gardens 809
tunnels 809
soviet-era 809
top-level 809
verbal 808
intellectuals 808
writes 808
chuck 808
plummet 808
e-commerce 808
bidder 808
swissair 808
martyrs 807
a&amp;m 807
rockefeller 807
hp 807
daunting 807
richards 807
remainder 807
tie-up 806
voluntarily 806
upgrades 806
hopman 806
lindsey 806
gambia 806
sanitation 806
khaleda 806
greetings 805
sheet 805
bombardier 805
riley 805
airlift 805
heineken 805
ejected 805
irs 804
one-shot 804
reconnaissance 804
somalis 804
semi 804
borrow 804
nominating 804
wolfgang 804
elaborate 804
meals 804
hangzhou 804
co 803
notion 803
##-month-old 803
firmed 803
indo-asian 803
blizzard 802
symbols 802
resurgence 802
crumbling 802
xi'an 802
zedillo 802
recognizing 801
presiding 801
cheese 801
riviera 801
colors 801
shipbuilding 801
messi 801
react 801
nortel 800
drum 800
hwa 800
avenge 800
groin 800
renaissance 800
misdemeanor 800
chinext 800
abidjan 800
marie 799
audi 799
indications 799
y 799
outage 799
peterson 799
annette 799
captivity 799
qinglin 799
crosses 799
architecture 799
fatalities 798
hashemi 798
cubic 798
fortified 798
ousts 798
fedex 798
performers 798
execute 798
sneak 797
showers 797
islamiyah 797
persist 797
theatre 797
shakespeare 796
stoppage 796
delphi 796
golfers 796
xerox 796
zhaoxing 796
grains 796
supplied 796
calgary 796
partnerships 796
blagojevich 796
ditch 796
overdue 796
christianity 796
subpoena 795
specialty 795
anti-nuclear 795
josh 795
deserted 795
julio 794
novels 794
x 794
career-high 794
stumbled 794
excluded 794
mistaken 794
changchun 794
ratio 793
birdies 793
buckingham 793
holyfield 793
subsidiaries 793
teamsters 792
secures 792
intercontinental 792
pounding 792
afraid 792
fiber 792
notably 792
kumar 791
fishery 791
luge 791
jolie 791
hsieh 791
seventeen 791
boarding 791
asa 790
fade 790
costing 790
pepsico 790
travellers 790
crocodile 790
lasted 790
contains 790
embryos 790
abusive 789
advisors 789
ex 789
bare 789
locate 789
prayed 789
retaliate 789
floodwaters 788
mouse 788
remark 788
hard-fought 788
svetlana 787
irrigation 787
fearful 787
speeds 787
o'connor 786
malone 786
simmering 786
newcomers 786
expectation 786
von 786
chengdu 786
convoys 786
reckless 786
listening 786
kiss 786
snag 786
gallons 785
adolf 785
separately 785
horrific 785
ruud 785
fend 785
basket 785
gradual 785
structural 785
molesting 785
eliot 785
arsene 785
frame 784
heath 784
jokes 784
benefited 784
opted 784
gunshot 784
soy 784
exemption 784
occupying 784
sprained 784
wesley 784
seasonally 783
blanket 783
yearlong 783
thorny 783
touching 783
whereabouts 783
tyco 783
naacp 783
europa 783
builder 783
ear 783
sections 783
sunk 783
engineered 782
burgeoning 782
smuggler 782
covers 782
kate 782
merchandise 782
dancers 782
governmental 781
uncle 781
cutbacks 781
truly 781
icahn 781
sedan 781
comrades 781
categories 780
bellsouth 780
breaching 780
authorizing 780
posters 780
sanders 780
bashir 780
unnecessary 780
transatlantic 779
hartford 779
connecting 779
countrymen 779
somewhere 779
batteries 779
centre-right 779
texans 778
plenary 778
###cc 778
jericho 778
daly 778
trailer 778
eradication 778
firefighter 778
boots 778
folks 778
gorge 778
cocoa 777
sunshine 777
sabah 777
treasuries 777
se 777
adjust 777
demonstrating 776
first-time 776
cover-up 776
depends 776
hajj 776
anti-crime 776
recruited 776
delighted 775
digested 775
johan 775
hamper 775
merely 775
triathlon 775
crusade 775
thorough 774
builders 774
rey 774
jumper 774
brewery 774
amended 774
arlington 774
knowing 774
lacklustre 774
egg 774
roland 774
larsson 773
collections 773
scolari 773
chilly 773
wrongly 773
discounts 773
govern 773
reunite 773
anti-smoking 772
bastion 772
eid 772
london-based 772
perth 772
featherweight 772
alcatel 772
lagging 772
wilderness 772
biased 772
experiencing 772
shortstop 772
congratulations 771
precautions 771
anti-taliban 771
typical 771
zaragoza 771
dynamic 771
sven-goran 771
coral 771
immune 771
victorious 771
wachovia 771
compatriots 770
avoids 770
emergencies 770
wrapping 770
curtis 770
th 770
caroline 769
sanction 769
monastery 769
dose 769
instructed 768
reliever 768
dilemma 768
princeton 768
inspire 768
piano 768
triggers 768
defies 768
owes 767
orbiting 767
ftse-### 767
jerome 767
shun 767
drown 767
expertise 767
rotating 767
basf 767
pyramid 767
equalizer 767
prosperous 767
hospitalised 766
scathing 766
bruised 766
poorly 766
charred 766
nominates 766
rescues 766
inch 766
italia 766
veil 765
criticises 765
tenor 765
triumphant 765
plantation 765
criteria 765
raytheon 765
surfaced 764
sukarnoputri 764
rigged 764
retirees 764
ot 764
pitt 764
##-game 764
fortis 764
publicist 764
maverick 764
rahman 764
dirt 764
legitimacy 764
mia 763
juice 763
executes 763
lucas 763
huckabee 763
durban 762
apologized 762
fitch 762
ochoa 762
dynamo 762
textiles 762
mar 762
softball 762
unconditional 762
presentation 762
scrapped 762
lifestyle 762
masterminding 762
ballack 762
discontent 762
kroner 762
carey 762
departs 761
homosexuals 761
continents 761
talabani 761
reef 761
shines 761
ocalan 760
peers 760
conditional 760
fisherman 760
companion 760
multi-million 760
briefs 760
underscored 760
vuitton 759
ellis 759
operates 759
tudjman 759
landmines 759
probable 759
cannon 759
appearances 759
addicts 759
rigging 758
serb-held 758
allan 758
stuns 758
disturbing 758
alinghi 758
depth 758
rios 758
recess 757
exist 757
belarussian 757
worrying 757
fingers 757
bass 757
routs 757
recipe 757
nursultan 757
urgency 757
davies 756
rethink 756
congestion 756
resignations 756
conventions 756
mercenaries 756
reservation 756
kouchner 756
loyalist 755
latino 755
starvation 755
demise 755
rusedski 755
gunbattles 755
free-agent 755
relationships 755
oxygen 755
southampton 755
sosa 755
physicist 755
anita 755
exams 754
guitar 754
pacts 754
uncertainties 753
rafiq 753
reflected 753
grieving 753
julian 753
capabilities 753
enacted 753
forgery 753
procter 753
relocate 753
majors 752
u 752
sellers 752
lumber 752
tutu 752
betancourt 752
wrestler 752
hooligans 752
knocks 751
mechanics 751
archaeological 751
indirect 751
papandreou 751
shocks 751
stuffed 751
deliberate 751
stringent 751
parcells 751
dash 751
lott 750
regardless 750
measured 750
curtail 750
transferring 750
chat 750
ponders 750
californians 750
bang 750
#-month-old 749
skull 749
trans 749
boarded 749
###-run 749
proven 749
palmeiras 749
bertelsmann 748
brakes 748
exceeding 748
smiling 748
replay 748
legalize 748
gerard 748
pt 748
livni 748
medallist 747
testifying 747
deplores 747
graduation 747
ignited 747
#g 747
heed 747
arraigned 746
robberies 746
obvious 746
please 746
aliens 746
anti-israeli 746
carol 746
tenth 746
paradise 745
upscale 745
bucs 745
everybody 745
scuffle 745
frantic 745
safina 745
alexei 744
euthanasia 744
roadblocks 744
blackmail 744
zoran 744
elevated 744
burger 744
mirage 744
springboks 744
alternatives 744
plastics 743
cross-taiwan 743
lull 743
responsibilities 743
###.### 743
moqtada 743
monkeys 743
mere 743
towering 743
potent 742
sandra 742
loves 742
stinging 742
physicians 741
armies 741
iss 741
fanned 741
garrison 741
jean-marie 741
sino-us 741
low-key 741
crazy 741
schemes 741
xu 741
reinforced 741
grueling 740
amir 740
fertility 740
worship 740
prestige 740
fund-raiser 740
sour 739
vicious 739
g 739
kigali 739
cruel 739
beheading 738
coruna 738
gomez 738
emission 738
tapped 738
devaluation 738
florence 738
concedes 738
earmarked 738
stabilization 738
advertisement 737
excitement 737
hawk 737
hayden 737
al-beshir 737
harrington 737
klm 737
footing 737
vigilance 737
preacher 737
nasty 737
missionaries 736
poetry 736
jeb 736
exhausted 736
pessimism 736
viagra 736
inclusion 736
chee 736
enabling 736
paribas 736
identifying 735
chissano 735
izetbegovic 735
emotions 735
enforcing 735
borneo 735
mercedes-benz 735
paramount 735
topics 735
dismay 735
brazen 735
destabilize 734
somber 734
outposts 734
plateau 734
spite 734
record-setting 734
dividing 734
toilet 734
bengals 733
hoop 733
tombs 733
philippoussis 733
sorrow 733
flocked 733
operatives 733
ariz. 733
useful 733
lawn 732
compiled 732
samaranch 732
lens 732
anti-us 732
prefecture 732
reggie 732
singers 732
bihari 732
vendors 732
hamad 732
guys 731
supersonics 731
ingushetia 731
occur 731
hardest 731
vetoed 730
technicians 730
unsure 730
spiraling 730
residency 730
slew 730
automobiles 730
stockpile 730
eur 730
siew 730
flyweight 730
formidable 730
logo 730
maluku 730
southernmost 729
dampen 729
noisy 729
pows 729
monthlong 729
alexandria 729
quakes 729
creek 729
samper 729
unlike 729
jaguar 728
lesser 728
sunnis 728
careful 728
freeman 728
microsystems 728
preventive 728
decade-long 728
supermarkets 728
contrary 728
permitted 728
paralympics 727
reminded 727
commissions 727
ji 727
jessica 727
hoya 727
marketplace 726
likelihood 726
dlr 726
manual 726
pure 726
roosevelt 725
zapatero 725
torres 725
warrior 725
gunners 725
scout 724
hydroelectric 724
profound 724
confined 724
timely 724
closed-door 724
deserves 724
commercials 724
f 724
vigorous 724
wie 723
rebellious 723
pressuring 723
togolese 723
fumes 723
timeline 723
winnie 723
skopje 723
jeopardize 723
inspected 723
vocal 723
plain 723
woody 722
underlined 722
grenada 722
gilbert 722
columbine 722
sumitomo 722
shadowy 722
claude 722
court-martial 722
saturn 721
wrecked 721
gerrard 721
one-month 721
correa 721
fiercely 721
lightly 721
asashoryu 721
scouts 720
paramilitaries 720
shenyang 720
al-aqsa 720
spray 720
collectors 720
defected 720
hardliners 720
coasts 720
vonn 720
windfall 720
appetite 719
dressing 719
belonged 719
flares 719
sammy 719
establishes 719
pad 719
guinness 719
termed 718
lennon 718
bulldozers 718
repeats 718
misuse 718
consent 718
pains 718
cancun 718
eli 718
dent 718
bubble 717
oilfield 717
peer 717
unilever 717
underlying 717
abb 717
brent 717
fdi 717
mid-air 717
abandons 716
adventurer 716
coli 716
exclusion 716
founders 716
charitable 716
trevor 716
breaststroke 715
commemoration 715
jong-il 715
blackouts 715
sequel 715
chopper 715
rulings 715
bows 715
crane 715
nguyen 714
kursk 714
altered 714
edgar 714
open-ended 714
stand-off 714
tightly 714
talented 714
ultranationalist 714
fullback 714
thaw 714
eurostar 714
smallpox 713
tissue 713
sharm 713
election-year 713
mismanagement 712
pets 712
tamils 712
paolo 712
mode 712
hacker 712
aek 711
statues 711
excited 711
rash 711
viewing 711
kwasniewski 711
undocumented 711
dormitory 711
resettlement 711
kidd 710
makeover 710
revives 710
reassured 710
montoya 710
swollen 710
sco 710
leonean 710
slice 710
obstruction 710
lilly 710
mirror 709
asserting 709
malaysians 709
toulouse 709
hicks 709
trounced 709
ilo 709
accountability 708
effectiveness 708
calf 708
bud 708
derails 708
renounce 708
feasibility 708
shirts 708
nab 708
toughen 708
munitions 708
jordanians 708
shin 708
taxpayer 708
jailing 708
rated 708
outing 708
disrupts 707
exciting 707
raikkonen 707
yokohama 707
makeup 707
penny 707
geared 707
admissions 707
outback 707
obtaining 707
salmonella 707
iphone 706
fossett 706
venezuelans 706
ferrer 706
bowed 706
proposition 706
third-round 705
#rd-qtr 705
abrupt 705
kemp 705
minsk 705
sword 705
headway 705
danube 705
heaven 705
activated 705
cameraman 705
un-backed 705
abbott 704
price-fixing 704
cheng 704
sikh 704
perpetrators 704
long-time 704
bent 704
eviction 704
careers 704
subjects 703
sway 703
poisonous 703
integrate 703
cage 703
mastercard 703
kong-based 703
short-course 703
consistent 703
leap 703
tan 703
glaxosmithkline 702
mazda 702
bae 702
measles 702
laid-off 702
carroll 702
resurgent 702
denktash 702
rehab 701
deaf 701
harshly 701
irresponsible 701
affirmed 701
joan 701
applying 701
shrimp 701
leukemia 701
lately 701
rafter 701
bumper 701
playstation 701
one-off 701
peasants 701
cries 701
advise 701
disneyland 701
toppling 701
maier 701
examiner 700
al-sabah 700
defining 700
kuna 700
titan 700
blix 700
foreclosures 700
blanc 700
exceeds 700
fifty 700
alessandro 699
peshawar 699
summers 699
skilled 699
absolutely 699
crawford 699
poppy 699
al-bashir 698
juror 698
groundwork 698
downplays 698
approximately 698
airing 698
carla 698
acknowledge 698
owens 698
uncover 698
flood-hit 698
conjoined 697
brick 697
adriatic 697
commissioned 697
hacked 697
animation 697
halls 697
tributes 697
seafood 697
fia 696
meteorology 696
noting 696
decorated 696
gypsies 696
thriving 696
luanda 696
rashid 696
hutchison 696
montenegrin 695
sooner 695
bosnians 695
exempt 695
lacked 695
ponder 695
france-klm 695
dignitaries 695
cas 695
telephoned 695
battalion 694
suicides 694
crescent 694
prefer 694
memorable 694
umpire 694
rumor 694
bc-yugoslavia 694
mudslide 694
asthma 694
naira 694
myspace 694
axe 693
djindjic 693
significance 693
converged 693
assessing 693
geoff 692
dogged 692
strictly 692
thunder 692
vaughan 692
aeronautics 692
incentive 692
muted 692
inflationary 692
slopes 692
poster 692
defector 692
enriched 691
dashed 691
swath 691
edmund 691
filmmakers 691
romario 691
convenience 691
qualifies 691
whitney 691
splits 691
glacier 691
sonics 691
hovered 690
ligament 690
hydropower 690
subpoenas 690
preview 690
budapest 690
campaigned 690
wise 690
santana 690
royalties 690
forcibly 689
relaunch 689
revelers 689
multi-billion 689
cali 689
globally 689
bore 689
cake 689
mittal 688
heaviest 688
baylor 688
verify 688
ideal 688
simultaneously 688
juergen 688
debacle 688
snapping 688
flamboyant 688
beers 688
outburst 687
mortality 687
dragons 687
noble 687
lodge 687
preservation 686
garry 686
junichiro 686
gramm 686
liga 686
sheds 686
diva 686
editions 686
vigilant 686
berger 686
much-needed 686
gruesome 686
isolate 686
coleman 686
dax 686
cska 685
#nd-qtr 685
qb 685
festive 685
comcast 685
fathers 685
valentino 685
deck 685
drain 685
spirited 685
unwanted 684
adrift 684
pedophile 684
c$ 684
councils 684
endanger 684
labeling 684
buck 684
wheelchair 684
busted 684
slaughtered 684
tsang 684
positively 683
teamed 683
recommending 683
endangering 683
portal 683
thrashed 683
juarez 683
perspective 683
buick 683
brass 683
mistrial 683
hugh 682
deregulation 682
##-run 682
stalking 682
directing 682
notified 682
banners 682
bride 682
planners 682
downgrades 682
chairs 682
ivanovic 682
klitschko 682
kozyrev 681
alliances 681
psychiatrist 681
gems 681
cancellations 681
pumped 681
otto 680
interbank 680
anatoly 680
grumman 680
cdc 680
na 680
nielsen 680
all-around 679
retaining 679
debt-ridden 679
nichols 679
metrostars 678
convenes 678
litigation 678
fest 678
ruin 678
reins 678
destructive 678
vintage 678
affiliated 677
teddy 677
exposing 677
defrauding 677
judging 677
specialized 677
j-league 677
heinz 677
robber 677
worsens 677
jolt 677
dini 677
endorsing 677
waning 676
polygamist 676
mosley 676
deer 676
cardoso 676
viable 676
lloyds 676
stalling 676
vick 676
bathroom 676
sensational 675
supermodel 675
padilla 675
froze 675
longstanding 675
troubling 675
hailing 675
arch 675
angelina 675
poaching 675
julius 675
snooker 674
escalates 674
india-pakistan 674
tri-series 674
upheaval 674
billing 674
torre 674
sometime 673
patricia 673
yanks 673
shipwreck 673
michelin 673
seller 673
inter-american 673
billboard 673
defined 673
belong 673
exception 673
tracked 673
busan 673
misled 673
voicing 673
fruits 672
void 672
hearst 672
courier 672
strapped 672
shawn 672
greenland 672
advises 672
productive 672
urumqi 672
chill 672
fasting 672
destroyer 671
kaka 671
apartments 671
underdog 671
collaborating 671
retaliatory 670
unstable 670
stint 670
subversion 670
shining 670
genoa 670
contador 669
spills 669
eyed 669
discovering 669
behari 669
frontline 669
congratulate 669
triangular 669
principe 669
grisly 669
zeng 669
english-language 668
moderates 668
arab-israeli 668
muralitharan 668
conversion 668
flush 668
npt 668
figured 668
dams 668
fences 668
deports 667
inaugurate 667
kunming 667
lorenzo 667
lohan 667
berkeley 667
connect 667
calcutta 667
waco 667
dim 667
archeologists 667
spielberg 667
outages 667
inaugurates 667
bologna 666
function 666
wrap 666
round-the-world 666
eight-month 666
tsunamis 666
full-time 666
salute 666
des 666
vieques 666
churchill 666
mormon 666
condolence 666
young-sam 666
putt 665
aleksander 665
soong 665
capability 665
barricades 665
layoff 665
realistic 665
pascal 665
hardcourt 664
soften 664
outlining 664
honest 664
icbc 664
disability 664
telkom 664
councillor 664
ethnically 663
blogger 663
accomplished 663
jurisdiction 663
assails 663
recycling 663
computing 663
striving 663
monkey 662
amazing 662
blank 662
tail 662
element 662
classrooms 662
ullrich 662
baath 662
stronger-than-expected 661
morale 661
labs 661
quran 661
quarantined 661
informant 661
determining 661
spouses 661
banda 661
arising 661
elton 661
indictments 661
mccarthy 660
concede 660
unresolved 660
layer 660
savage 660
manipulation 660
beefed 660
sullivan 660
pesticide 659
offences 659
medieval 659
interviewed 659
png 659
instrument 659
swoop 658
pumps 658
videotape 658
patten 658
switching 658
update 657
nutrition 657
decries 657
sprayed 657
simitis 657
pits 657
needing 657
barge 657
platinum 657
submits 657
auditor 657
acropolis 657
simultaneous 657
pristina 657
colombians 656
hostage-taking 656
drifting 656
coffin 656
genuine 656
commerzbank 656
morrison 656
domain 656
liable 655
commentator 655
roadblock 655
miliband 655
staunch 655
cholesterol 655
leveled 655
bosnia-hercegovina 655
mobs 654
occupy 654
christine 654
embarrassed 654
packaging 654
mueller 654
vince 654
storied 654
tearing 654
sirens 654
unseat 654
moss 654
ivorian 654
zhao 654
paedophile 653
counseling 653
guides 653
telephones 653
iranian-backed 653
military-ruled 653
adidas 653
narasimha 653
hotline 653
risked 653
##-million-dollar 652
recordings 652
yonhap 652
installing 652
rested 652
maneuver 652
fold 652
robbing 652
diyala 652
micro 651
josef 651
obscure 651
tadic 651
jammu 651
certification 651
cartels 651
nistelrooy 651
epo 651
cowboy 651
provocation 651
havens 650
hamas-led 650
finalist 650
comparing 650
chairmanship 650
lesbians 650
rescheduled 650
nasser 650
nathan 650
lng 650
doomsday 650
objective 649
eva 649
fatality 649
counter-terrorism 649
one-dayer 649
ecuadoran 649
bangladeshis 649
rat 649
daylight 649
cautions 649
hq 649
handgun 649
citroen 649
reasonable 648
menu 648
resisting 648
theo 648
ljubicic 648
pepper 648
explains 648
conversations 647
troupe 647
themes 647
provoking 647
###-year 647
undertake 647
scenario 646
skater 646
jaap 646
licence 646
splitting 646
intensity 646
litvinenko 646
forth 645
sandy 645
mobilize 645
racer 645
deterioration 645
unhappy 645
gao 645
bedroom 645
worn 645
piled 645
rupee 645
bickering 645
discourage 645
leasing 644
staffers 644
habits 644
b-share 644
divides 644
ortiz 644
excluding 644
multi-party 644
stepped-up 644
wealthiest 644
monsanto 644
stoning 643
favre 643
receipts 643
inquiries 643
roundup 643
half-year 643
downplayed 643
environmentally 643
umpires 643
helms 643
###-pound 643
scholarship 643
hart 643
herbert 642
overdose 642
crisis-hit 642
bruising 642
piazza 642
singled 641
asia-europe 641
accuser 641
kazakstan 641
lecture 641
speculators 641
sub-saharan 641
ranariddh 641
eight-day 640
infiltration 640
separating 640
katie 640
guinean 640
offseason 640
season-high 640
staggering 640
outlying 639
acquits 639
henrik 639
emile 639
shorter 639
nan 639
noticed 639
superjumbo 639
cantona 639
ecevit 639
forty 638
strawberry 638
strives 638
taoyuan 638
secessionist 638
stoke 638
rewarded 638
superintendent 638
peace-keeping 638
myers 638
goalless 638
fatigue 638
foley 638
goodyear 638
fourth-seeded 637
eni 637
consolidating 637
#b 637
byron 637
fanfare 636
differ 636
ideological 636
contraction 636
camilla 636
fencing 636
by-elections 636
adultery 636
thrust 636
spiral 635
detection 635
eds 635
syracuse 635
relocation 635
nagano 635
telstra 635
injected 635
exclude 634
cardiff 634
assisting 634
disciplined 634
cnooc 634
trimmed 634
counters 634
shortened 634
henderson 634
practicing 634
erase 634
expire 634
sotomayor 633
regains 633
distress 633
backstroke 633
dpr 633
sicilian 633
bertrand 633
transmitted 633
kph 633
accommodate 633
attaches 633
corning 633
massa 633
supervisors 632
slugger 632
softer 632
fleming 632
amusement 632
sadness 632
absentia 632
transplants 632
beslan 632
gripping 632
smog 632
falsely 632
insecurity 631
six-week 631
kidnappers 631
therapy 631
batsmen 631
hussain 631
credits 630
certified 630
safeguards 630
inflicted 630
remanded 630
liner 630
weaker-than-expected 630
hampering 630
detailing 630
dignity 630
hanson 629
vigorously 629
glen 629
fruitful 629
gretzky 629
appreciation 629
ultra-orthodox 628
nuns 628
relying 628
cultivation 628
auxerre 628
kmart 628
nacional 628
zheng 628
maher 628
mcdonnell 628
evacuating 628
selects 628
disagree 627
theodore 627
malls 627
haifa 627
burton 627
vacuum 627
pbs 627
moshe 627
xavier 627
huddled 626
tirana 626
rivera 626
mkapa 626
claudio 626
kerkorian 626
structures 626
shrugs 626
curious 625
whip 625
jaya 625
maputo 625
lyonnais 625
ailment 625
pal 625
parkinson 624
resisted 624
schedules 624
slovakian 624
fluminense 624
reaffirm 624
purge 624
salvation 624
####.# 624
wolfsburg 624
tymoshenko 624
communist-era 624
polluting 623
cigar 623
clerides 623
prohibited 623
leonardo 623
star-studded 623
pepsi 623
grande 623
unilaterally 623
contend 623
creditor 623
yielded 623
grateful 622
hawaiian 622
full-scale 622
lennox 622
rang 622
libraries 622
gyanendra 622
banquet 622
shame 622
minimize 622
repaired 621
doesn 621
aspirations 621
#th-qtr 621
sperm 621
eastman 621
nagorno-karabakh 621
royalty 621
box-office 620
mattel 620
lemieux 620
vista 620
unlawful 620
jalal 620
successes 619
deepest 619
actual 619
authorization 619
scaling 619
allay 619
attractions 619
aftershock 619
eagerly 619
xiang 618
praying 618
asylum-seekers 618
tribunals 618
span 618
footballers 618
impression 618
covert 618
poorer 618
eavesdropping 618
follow-up 617
adjustment 617
humble 617
regulating 617
sands 617
campuses 617
withhold 617
dining 617
confused 617
accordance 617
sodomy 617
contrast 617
starving 616
p.v. 616
discs 616
lonely 616
stretching 616
idle 616
spectrum 616
plotters 616
stan 616
paris-nice 616
richmond 616
portable 616
nestor 616
helmand 615
enforced 615
vetoes 615
massacred 615
relegated 615
mombasa 615
waterfront 615
roses 615
yves 615
bo 615
#.#-billion-dollar 615
provoke 615
workout 615
breaches 615
stalinist 614
erosion 614
abdurrahman 614
merit 614
physically 614
sara 614
habit 614
hacking 614
lira 614
cite 614
satisfy 614
bites 614
accurate 614
drug-related 614
lured 614
instructions 613
despair 613
ping 613
displaying 613
newman 613
interesting 613
ha'aretz 613
fourth-largest 613
arcelor 613
lowe 613
qomolangma 613
plummeting 613
herve 613
screaming 612
cristina 612
leaflets 612
consular 612
coffers 612
optical 612
demirel 612
execs 612
wines 612
spar 612
fades 612
anand 612
legends 612
troopers 611
inconclusive 611
motorcycles 611
emphasized 611
ss 611
defective 611
impressed 611
luke 611
unruly 611
abhisit 611
strauss 611
umbrella 611
self-proclaimed 610
boc 610
edison 610
den 610
ventura 610
cricketer 610
nicosia 610
seychelles 610
infantry 610
neglect 610
all-round 610
wasted 610
tearful 610
allocate 610
chilling 610
ruihuan 610
high-rise 610
rightist 610
fivb 610
bristol-myers 609
zinedine 609
julie 609
anglo 609
mussa 609
son-in-law 609
slaves 609
bc 609
invented 609
ina 609
anti-aids 609
spoken 608
discord 608
ingredients 608
retake 608
stealth 608
surpass 608
keegan 608
ga. 608
ceremonial 608
valid 608
###s 608
buddy 608
port-au-prince 608
tactic 608
surf 608
branson 608
minister-designate 608
espanyol 608
searchers 608
##-week 608
chronology 608
genius 608
sani 607
kournikova 607
boycotting 607
apology 607
aborted 607
sociedad 607
methane 607
hikers 606
conciliatory 606
cab 606
limelight 606
contending 606
four-game 606
treaties 606
prostitute 606
divert 605
supervisor 605
openness 605
unionists 605
gregory 605
neo-nazis 605
overlooking 605
tcu 605
revitalize 605
leisure 605
anti-piracy 605
circular 605
cds 605
bremer 605
forbidden 605
regaining 604
necessarily 604
vera 604
mcgwire 604
rodman 604
indian-administered 604
nationality 604
goma 604
commemorative 604
bustling 604
jammed 604
rifkind 604
westerners 604
ruiz 604
nikolay 603
emi 603
morakot 603
desmond 603
brake 603
tyler 603
shaping 603
wonders 603
quiz 603
suv 602
landis 602
intervened 602
supremacist 602
definition 602
racket 602
guam 602
nowitzki 602
paradorn 602
raped 601
thrash 601
quantity 601
masses 601
perceived 601
bernie 601
gutted 601
berths 601
venerable 601
ipr 601
caps 601
archrival 601
ruptured 601
ganguly 601
script 601
songwriter 600
gibbs 600
answered 600
routinely 600
defectors 600
asians 600
soros 600
odyssey 600
ingrid 599
khaled 599
schiavo 599
domenech 599
joaquim 599
expelling 599
resounding 599
gypsy 599
khalifa 599
assignment 599
ire 598
floated 598
off-duty 598
hook 598
accountable 598
genome 598
bancorp 598
stoked 598
ashley 598
sundance 598
leo 598
item 598
statute 598
sweat 598
zulu 597
borrowers 597
pub 597
suitcase 597
touchdowns 597
nash 597
erased 597
enrollment 597
tijuana 597
younis 597
####\/## 597
greets 597
earnest 596
rear 596
lire 596
derailment 596
les 596
irian 596
exceptional 596
seven-month 596
rainbow 595
fusion 595
abdelaziz 595
exits 595
protects 595
caterpillar 595
rips 595
spelling 595
lotus 595
henrique 595
eldest 595
clean-up 594
beside 594
entity 594
midtown 594
scheffer 594
sheets 594
frigid 594
most-wanted 594
newly-elected 594
terminals 594
olympiad 593
cultures 593
frigate 593
germain 593
mid-####s 593
worthy 593
guo 592
whirlwind 592
carnegie 592
andrews 592
contingency 592
hydro 592
intern 592
bildt 592
barings 592
directorate 592
eastward 592
shattering 592
tarnished 592
shadows 592
visa-free 592
selecting 592
statesman 591
fulfilling 591
ambition 591
foundations 591
kwan 591
anxiously 591
hmong 591
hitachi 591
brokered 591
drogba 591
rwandans 590
wyoming 590
vejjajiva 590
spice 590
explaining 590
compelling 590
nl 590
privileges 590
foray 590
discovers 590
soothe 590
gil 590
reverses 590
summits 590
basescu 589
conspired 589
yanukovych 589
thumb 589
overhauling 589
h# 589
pa 589
rovers 589
postponing 589
gogh 589
landfall 589
withdrawals 589
tian 588
comptroller 588
surgical 588
translator 588
harbin 588
raucous 588
hinder 588
equally 588
withheld 588
vouchers 587
#.#-percent 587
chung 587
attendant 587
decreasing 587
disabilities 587
high-risk 587
nantes 587
vijay 586
squeezed 586
chunk 586
willy 586
gaza-bound 586
world-class 586
akhtar 586
parish 586
sopranos 586
dirk 586
pond 586
inventor 586
dangerously 586
aer 585
magnetic 585
shoot-out 585
shaun 585
cleansing 585
bouteflika 585
elegant 585
vuelta 585
anheuser-busch 585
vitamin 585
comet 585
cruelty 585
stumbling 585
slamming 585
griffey 585
ltte 585
loser 584
bono 584
certificate 584
slogan 584
rauf 584
adriano 584
catalonia 584
firebrand 584
irwin 584
feat 584
freetown 584
sachin 584
switches 584
sidney 583
vasco 583
mound 583
first-leg 583
persists 583
elliott 583
home-made 583
coliseum 582
paterson 582
embarrassment 582
header 582
stretches 582
servant 582
bulent 582
jacksonville 582
chivas 582
pavilion 582
spilling 582
pale 582
endless 582
pele 582
proxy 582
undercut 582
unlimited 582
westwood 581
grips 581
daschle 581
harassed 581
savimbi 581
bureaucracy 581
gunpoint 581
elias 581
aborigines 581
ears 581
scourge 581
remembrance 581
reconcile 581
municipalities 581
langer 580
hype 580
rifts 580
frustrating 580
col. 580
record-high 580
clooney 580
catering 580
startling 580
dokic 580
n.h. 580
enthusiastic 580
consul 580
reader 580
insults 579
grandfather 579
electing 579
traditions 579
photograph 579
resting 579
dissolution 579
backyard 579
turtles 579
herman 579
anytime 578
floors 578
identities 578
rebuffs 578
installment 578
loomed 578
privilege 578
dense 578
francesco 578
bobsled 578
fogh 578
jubilant 578
smear 578
indict 577
asem 577
corpse 577
sbc 577
joaquin 577
eugene 577
deplored 577
bleeding 577
rhodes 577
horns 577
warheads 577
erected 577
nineteen 577
anti-secession 577
watergate 577
transforming 577
oaxaca 576
ferreira 576
diallo 576
titled 576
high-powered 576
escorted 576
shannon 576
malik 576
hideouts 576
wetlands 576
undergone 575
correspondents 575
york-based 575
tolerate 575
darling 575
spinning 575
dominica 575
kyle 575
build-up 575
year-long 575
breathe 575
spinner 575
salomon 575
hawkish 575
wrongful 575
seismologists 574
stubborn 574
stung 574
lingus 574
barney 574
patriotism 574
petty 574
designate 574
allegiance 574
wallaby 574
everyday 574
year-ago 573
retrieved 573
cosmonauts 573
ivo 573
licensed 573
five-nation 573
repayment 573
ethiopians 573
regatta 573
decision-making 573
seminary 573
bavaria 573
underage 573
uci 573
sufferers 573
pavarotti 573
viral 573
wheels 573
petrova 572
joerg 572
expenditure 572
smell 572
kia 572
patrolled 572
muddy 572
carson 572
policing 572
secession 572
scared 572
avalanches 572
statoil 572
shallow 571
diary 571
salinas 571
shearer 571
cocktail 571
graffiti 571
carmakers 571
wielding 571
lucia 571
lankans 571
boxers 571
reservists 571
protein 570
dept. 570
instructor 570
definitive 570
clint 570
midwestern 570
abramoff 570
upturn 570
tackles 570
letterman 570
happens 570
jiechi 570
grupo 570
dylan 570
counterfeiting 570
rodney 569
buoyant 569
overpowered 569
disco 569
mcgrath 569
deploys 569
gangster 569
confederate 569
protestants 569
hiking 569
luciano 569
surround 569
hamburger 569
mulled 568
controller 568
reunions 568
blankets 568
bounces 568
murky 568
manpower 568
barrichello 568
highlands 568
auburn 568
archer 568
meyer 568
erratic 568
recipient 568
betty 568
confinement 568
gospel 568
raping 568
assurance 567
bounty 567
safrican 567
recorder 567
slate 567
altitude 567
ukrainians 567
austrians 567
betis 567
communal 566
sampdoria 566
hazards 566
promptly 566
greeting 566
persuading 566
regretted 566
aussies 566
wendy 566
functions 566
climax 566
preserving 566
hiatus 566
unsuccessful 566
lille 566
picket 566
outlet 566
gem 565
synchronized 565
architects 565
anyway 565
educators 565
consultants 565
ate 565
three-nation 565
pro-russian 565
play-off 565
'n' 565
console 565
subpoenaed 565
antibiotics 564
miers 564
frightened 564
trustees 564
supervise 564
offender 564
stride 564
kindergarten 564
fracture 564
saad 564
prolong 564
aluminium 564
indeed 564
sese 564
toe 564
khalid 564
henri 564
populations 563
rbi 563
proton 563
boundaries 563
shaw 563
knives 563
normalize 563
m# 563
frances 563
rests 563
celsius 563
pillar 563
diaz 563
moguls 563
fielding 563
archery 563
ringing 563
obstructing 563
belts 563
importers 563
gloves 562
paceman 562
docks 562
seko 562
jeter 562
coria 562
marshal 562
armor 562
meaningful 562
seizures 562
karim 562
choking 562
inflows 562
infineon 561
candles 561
shouted 561
leaning 561
getty 561
leftists 561
bomb-making 561
joey 561
bissau 561
afl-cio 561
possibilities 561
guiding 561
demjanjuk 561
standby 561
withholding 560
melting 560
herbal 560
cepd 560
talents 560
pcs 560
centenary 560
venables 560
melamine 560
foreign-funded 559
tasked 559
ait 559
fletcher 559
retrieve 559
maori 559
tutsi 559
wool 559
strangled 559
wonderful 559
re-sign 559
self-defense 559
endesa 559
gathers 558
one-china 558
marsh 558
gutierrez 558
systematic 558
plaintiffs 558
next-generation 558
sharpton 558
radcliffe 558
left-hander 558
boycotts 558
batons 558
robson 558
readied 558
passionate 557
quarter-century 557
luca 557
logan 557
bangalore 557
forsberg 557
nova 557
##-yard 557
productions 557
societies 557
kaunda 557
signalled 557
blazing 557
accra 557
lowly 557
highest-ranking 556
immunization 556
abide 556
forgiveness 556
klein 556
rite 556
citibank 556
selig 556
giovanni 556
prohibit 556
hid 556
corzine 556
rainstorms 556
restricts 556
belongs 556
televisions 556
farrakhan 556
high-end 556
omani 555
masterpiece 555
ugandans 555
fenway 555
surely 555
funerals 555
deflation 555
unaware 555
steered 555
fis 554
naomi 554
panicked 554
retransmits 554
influenced 554
wildly 554
playmaker 554
indicts 554
jeans 554
hsinchu 554
reshuffled 554
repurchase 554
cartoonist 554
expatriates 554
sake 553
charismatic 553
enrich 553
apparel 553
macy 553
beds 553
psg 553
directive 553
skirmish 552
strategist 552
planner 552
gaz 552
##k 552
starters 552
scales 552
sochi 552
traian 552
alien 552
poker 552
propel 552
razed 552
dana 552
nottingham 551
refueling 551
ernst 551
rats 551
rewrite 551
printed 551
petitions 551
recipes 551
assemble 551
disguised 551
storming 551
triangle 551
burying 551
nicklaus 551
finest 551
baptist 551
surpassing 551
exact 550
soderling 550
fifth-seeded 550
notebook 550
literally 550
yuri 550
t-shirts 550
conservationists 550
swallows 550
temples 550
subcommittee 549
unsettled 549
stalin 549
springsteen 549
choi 549
bash 549
greenwich 549
staten 549
qin 549
ravalomanana 549
globes 549
adverse 549
conducts 548
algerians 548
overhead 548
part-time 548
explicit 548
hynix 548
miserable 548
punching 548
malnutrition 548
defusing 548
kilometer 547
tricks 547
schneider 547
lacrosse 547
hillside 547
birdied 547
raffarin 547
linger 547
veered 547
concussion 547
tenet 547
anglo-dutch 547
waive 547
robinho 547
emu 546
hamlet 546
inspects 546
ifc 546
potato 546
sealing 546
shoulders 546
government-backed 546
two-way 546
boasts 546
scan 546
aspiring 546
profiling 546
hiv-positive 545
blasting 545
sham 545
slept 545
rapper 545
ordinaries 545
mnd 545
captives 545
loss-making 545
typically 545
brushing 545
schwab 545
belize 544
.### 544
steinbrenner 544
parades 544
zhuhai 544
unfit 544
biblical 544
mentioned 544
identifies 544
seven-time 544
oversaw 544
washing 544
haotian 544
monuments 544
fossils 544
assailed 544
tee 544
finnair 544
disbanded 544
eac 544
malibu 544
friction 543
musab 543
magnus 543
tzipi 543
rescuing 543
basel 543
h 543
balancing 543
pants 543
rap 543
#st-quarter 543
ferocious 543
stored 543
balloons 543
ryutaro 543
exchanging 543
sitcom 543
terrified 543
menace 543
lineman 543
warmer 543
##.#-percent 543
agence 543
peril 542
wizard 542
yorker 542
muluzi 542
filmed 542
kwazulu-natal 542
sheltering 542
vandalism 542
conscience 542
loosen 542
confronts 542
strides 542
closures 542
dish 542
clause 542
clerk 542
rebuilt 541
rebuked 541
motive 541
zvonareva 541
triumphs 541
violently 541
restraining 541
vargas 541
deserved 541
historians 541
portfolios 541
chinese-made 541
browser 541
booth 541
bongo 541
insult 541
nighttime 541
crosby 541
countless 540
accountant 540
inhabitants 540
phuket 540
gambian 540
classics 540
wada 540
undersecretary 540
philosophy 540
uneven 540
chipmaker 540
ibn 539
trojans 539
invading 539
headache 539
complicate 539
exploding 539
tremors 539
-lcb- 539
drcongo 539
definitely 539
asx### 539
countryman 539
conferences 539
rudolf 538
meles 538
minus 538
berkshire 538
considerably 538
assumes 538
olivier 538
biting 538
spawned 538
daniels 538
levi 538
exhumed 538
pa. 538
swan 537
rattle 537
mobilized 537
sk 537
mullah 537
prediction 537
danes 537
circulated 537
kcna 537
windy 537
tansu 537
opt 537
ingredient 537
markedly 537
newport 537
clement 537
gritty 536
saint-germain 536
rocketed 536
motorcade 536
salzburg 536
jade 536
subjected 536
absentee 536
nonstop 536
roller 536
ole 536
bihar 536
lag 536
academia 535
distinguished 535
ai 535
warplane 535
combining 535
reassures 535
louisville 535
jams 535
underworld 535
sidewalk 535
zoellick 535
vaughn 535
sedition 535
terrain 535
oceans 535
claus 535
stripes 535
segment 535
glad 535
honeymoon 534
essentially 534
redeployment 534
qiao 534
secretaries 534
euronext 534
lukoil 534
theories 534
computerized 534
battering 534
bachelet 534
pipes 534
rosa 534
info 534
walsh 534
advertisers 534
benefiting 534
trusted 534
precaution 534
alstom 534
scholarships 534
ion 534
dems 534
hannover 534
perished 533
messier 533
haunt 533
mahinda 533
alerts 533
preakness 533
mask 533
applauded 533
oversees 533
largest-ever 533
alberta 533
guilt 533
tendon 533
turtle 533
paerson 533
preserved 533
logistical 533
unpredictable 533
beliefs 533
plowed 533
gymnast 533
guerrero 533
fabio 533
classmates 532
beans 532
uninsured 532
georgians 532
rabbis 532
inform 532
gillette 532
anti-globalization 532
aggravated 532
emblem 532
krajina 532
marty 531
defunct 531
deliberating 531
centuries-old 531
petr 531
us-backed 531
promotional 531
glafcos 531
ruben 531
disorders 531
rangoon 531
purple 531
friendlies 531
unease 531
cla 531
snubbed 531
leaderboard 530
ernest 530
dispel 530
yulia 530
nafta 530
foreman 530
kung 530
echo 530
unsolicited 530
landmarks 530
bunch 530
hiddink 530
plates 530
ballpark 529
nagoya 529
firings 529
unep 529
lent 529
fixture 529
alice 529
supplement 529
rationing 529
wanderers 529
gym 529
beneficial 529
clocked 529
publicized 529
roar 529
educator 529
corners 529
rip 529
responds 528
codes 528
motorist 528
liberalize 528
grammys 528
explores 528
cornerstone 528
apiece 528
respite 527
olympian 527
lends 527
ashton 527
hampton 527
yar 527
fujitsu 527
harming 527
ewing 527
unexploded 527
rows 527
directions 527
ex-leader 527
excuse 527
laments 527
allege 527
liquidation 527
wildcat 526
foresees 526
parity 526
origins 526
slums 526
quash 526
reunify 526
verdicts 526
marquez 526
specifically 526
delight 526
cayman 526
nuremberg 526
synagogues 525
overheating 525
exploiting 525
psa 525
laugh 525
blackstone 525
penghu 525
captors 525
notable 525
cone 525
yachting 525
soured 525
slap 525
enrique 525
pesticides 525
lava 524
interpreter 524
scrapping 524
normalization 524
bjorn 524
ram 524
hermann 524
trauma 524
shrugging 524
wash 524
vanguard 524
heisman 524
mo 524
slope 524
magistrates 524
kuwaitis 524
j.p. 524
threshold 523
bee 523
sculptor 523
fractious 523
aidid 523
notch 523
madagascan 523
riches 523
diversify 523
gangsters 523
refutes 523
npa 523
veiled 523
entertainer 523
cbc 523
barkley 523
diversion 523
dividends 523
alerted 523
dazzling 523
snake 522
okays 522
inducted 522
hamas-run 522
multibillion 522
wa 522
herd 522
hazard 522
shower 522
wed 522
argentines 522
bt 522
petrochina 522
sanaa 522
spun 522
prone 522
haditha 522
exxonmobil 522
mantle 521
homegrown 521
revising 521
phrase 521
commissioners 521
niyazov 521
byrd 521
grilled 521
gatherings 521
breed 520
chiayi 520
dear 520
gremio 520
mccann 520
elevator 520
tongue 520
knesset 520
profession 520
mandelson 520
civilization 520
performer 520
deteriorated 520
cereal 519
longest-serving 519
borrowed 519
staples 519
uighur 519
daytime 519
hydrogen 519
ramadi 519
conferred 519
amanda 519
motogp 519
severance 519
uaw 519
grabbing 519
concealed 519
flaw 519
merging 519
viruses 519
blunder 519
appointing 519
lynn 519
pro- 519
indycar 518
lorry 518
cambodians 518
carrefour 518
unify 518
entries 518
udinese 518
nine-year 518
###-member 518
tsu 518
liters 518
a-league 518
first-degree 518
cba 518
dwight 518
griffin 518
daimler-benz 517
commonly 517
shan 517
discharge 517
ciudad 517
qurei 517
forefront 517
anti-gay 517
dolly 517
yan 517
suleyman 517
trainers 516
irregular 516
drift 516
start-up 516
usoc 516
platforms 516
fitting 516
pearson 516
bradford 516
lauren 516
anti-syrian 516
pro-taliban 516
sped 516
legion 516
insistence 516
ftc 516
dived 515
hank 515
anelka 515
franjo 515
motorway 515
jiri 515
alamos 515
vi 515
stoking 515
phony 515
teaming 515
flare 515
iea 514
bunker 514
wwf 514
demolish 514
restarting 514
piraeus 514
cannons 514
ecomog 514
sever 514
murderers 514
inability 514
streamed 514
nt 514
negligent 514
retreats 514
afloat 514
unconscious 514
chun 514
mid-#### 514
toni 513
overlooked 513
user 513
intercept 513
sol 513
jungles 513
tripartite 513
marrow 513
sla 513
tikrit 513
painkiller 513
jimenez 513
pursues 513
grassroots 512
monterrey 512
overturning 512
arthritis 512
anton 512
mid-term 512
arats 512
earmarks 512
pitting 512
marshals 511
swelling 511
jaguars 511
curling 511
neglected 511
utmost 511
jewel 511
authorizes 511
cashed 511
brighter 511
lash 511
beit 511
rmb 511
finalizing 511
hovers 511
overcomes 511
assuring 510
slowest 510
texaco 510
lower-than-expected 510
cafes 510
commemorated 510
pleasure 510
encountered 510
soyuz 510
orderly 510
jens 510
co-host 510
spewing 509
slander 509
insight 509
oceania 509
two-year-old 509
condom 509
forecasting 509
mentor 509
michele 509
ordinance 509
festivals 509
autism 509
astrazeneca 509
scientology 509
regular-season 509
wished 509
refuted 508
minivan 508
reinforcing 508
disclosing 508
discoveries 508
fuelled 508
swirling 508
crater 508
emotion 508
goosen 508
medalists 508
tory 508
mcrae 508
johns 508
ramp 508
arusha 508
divorced 507
chittagong 507
telegraph 507
restriction 507
kahn 507
salem 507
advantages 507
pumas 507
leaf 507
hurry 507
anymore 507
krajicek 507
parliaments 507
arsonists 507
preparedness 507
eroded 506
qaida 506
jupiter 506
advising 506
gotti 506
prevail 506
surcharge 506
srinagar 506
interrogations 506
answering 506
pin 506
#-d 506
affirms 506
edinburgh 506
brandon 506
burglary 506
danone 506
gallon 506
religions 506
roaring 506
cull 506
middle-class 506
freak 506
gusmao 506
thrashing 505
enraged 505
stopover 505
bullying 505
archive 505
reluctance 505
inappropriate 505
bristol 505
reprisals 505
arcelormittal 505
three-year-old 505
commended 505
diminished 504
shoaib 504
inflow 504
centerpiece 504
penultimate 504
amidst 504
trails 504
lang 504
tend 504
rehearsal 504
rightwing 504
reprimanded 504
opts 503
lockout 503
cindy 503
flintoff 503
glove 503
muslim-majority 503
rabies 503
pronounced 503
merged 503
improbable 503
con 503
demilitarized 503
reshuffles 503
diarrhea 503
summon 503
outsider 503
fowler 503
substantive 503
inked 502
waterway 502
drummer 502
dumps 502
joao 502
springbok 502
favoring 502
koran 502
spinal 502
accomplice 502
leslie 502
premises 502
transnational 502
payrolls 502
activate 502
destiny 501
sizable 501
psychologist 501
complicity 501
swore 501
jeddah 501
mistreatment 501
repairing 501
ahold 501
mariano 500
medina 500
poachers 500
booster 500
indecent 500
anti-narcotics 500
flyhalf 500
grilling 500
replica 500
bujumbura 500
downfall 500
episodes 500
pulp 500
sweltering 500
sexy 500
##-mile 500
dull 500
marcel 500
hammers 500
syrians 500
shunned 500
ringleader 500
pap 500
satisfactory 499
examines 499
roofs 499
evicted 499
kiwis 499
contagious 499
downbeat 499
bc-as-gen 499
egyptair 499
vocational 499
buyback 499
traveler 499
corresponding 499
assuming 499
paralysed 499
cardiac 499
solely 499
subways 498
suspense 498
deserve 498
diver 498
re-signed 498
old-fashioned 498
budgetary 498
edf 498
conceding 498
bath 498
lamberto 498
urine 498
murderous 498
digest 498
diane 498
superb 498
lighter 498
intelligent 497
orchestrated 497
renamed 497
sunset 497
massed 497
pharmacy 497
notched 497
sinopec 497
app 497
chee-hwa 497
kissinger 497
escaping 497
nauru 497
incursions 496
entourage 496
drawings 496
twickenham 496
blocs 496
responses 496
inaction 496
rookies 496
lahoud 496
precedent 496
losers 496
coached 496
forwards 496
preval 496
organising 496
ex-pm 495
endowment 495
jonny 495
reacting 495
newsweek 495
syed 495
multimillion 495
onboard 495
cna 495
burke 495
patterns 495
stumble 495
mustafa 495
kidnappings 495
centered 495
amounting 495
inflated 495
ill-fated 494
cans 494
airasia 494
shepherd 494
constituencies 494
splash 494
disband 494
exists 494
milton 494
commemorates 494
pms 494
dixon 494
travis 494
whipped 494
lamy 493
fairness 493
bloom 493
reformers 493
dvds 493
u# 493
##-round 493
dishes 493
tamiflu 493
embraces 493
flanker 493
outdated 493
scooter 493
booking 493
branding 493
crete 493
heirs 493
inspires 492
kidnap 492
pedestrian 492
confessions 492
georgetown 492
westinghouse 492
portraits 492
anti-u.s. 492
drums 492
short-lived 492
presley 492
u.s.-mexico 491
oh 491
verification 491
translation 491
prius 491
dreamworks 491
forgive 491
clive 491
spearhead 491
mahdi 491
nest 491
dependent 491
knees 491
open-air 490
harassing 490
alija 490
inferno 490
whistleblower 490
infecting 490
glamour 490
paused 490
marilyn 490
rocket-propelled 490
flour 490
grasp 490
kiefer 490
robredo 490
seismic 490
touting 490
alito 490
filings 490
persuaded 490
smiles 489
snowboard 489
pine 489
eligibility 489
fray 489
murayama 489
onetime 489
assert 489
attitudes 489
stranding 489
supremo 489
interrogated 489
zenawi 489
underscores 489
screened 488
unharmed 488
firestone 488
carved 488
bakiyev 488
persson 488
employ 488
north-south 488
ramsey 488
humiliation 488
consuming 488
proceeding 488
schilling 487
glasses 487
environmentalist 487
k 487
prelude 487
irving 487
boon 487
dues 487
gebrselassie 487
importation 487
cod 487
priced 487
vaccinations 487
seismological 487
quito 487
patty 487
##-billion-dollar 486
witch 486
jacobs 486
assange 486
government-run 486
gazans 486
horrors 486
rachel 486
avatar 486
tractor 486
piles 486
restitution 486
stranger 486
crewmen 486
outweighed 486
continuation 486
tangled 485
feminist 485
reformists 485
leno 485
eelam 485
johnnie 485
unscheduled 485
composed 485
hatch 485
backlog 485
weakest 485
scrambles 485
spectacle 485
cervical 485
headaches 485
zealanders 485
salvaged 484
hualien 484
##th-minute 484
conocophillips 484
bulgarians 484
grill 484
oriental 484
prevents 484
jacket 484
clouded 484
arrears 484
ignores 484
colo 483
ineffective 483
caring 483
norwegians 483
bazaar 483
evict 483
fitzgerald 483
aquatic 483
najib 483
petronas 483
retreating 483
#,###,### 483
estoril 483
fahrenheit 483
dental 483
rebates 483
payton 483
fretted 482
philosopher 482
war-crimes 482
dashing 482
cue 482
heatwave 482
entertaining 482
obscene 482
minneapolis 482
temper 482
edwin 482
ominous 482
galatasaray 482
taxis 482
corrections 482
antwerp 481
corsican 481
prefers 481
ku 481
much-anticipated 481
first-division 481
vat 481
transported 481
absorb 481
arranging 481
mysteries 481
wam 481
bouncing 481
broad-based 480
generali 480
two-hour 480
revamping 480
outsiders 480
promoters 480
marwan 480
axel 480
kai-shek 480
springer 480
disengagement 480
hathaway 480
angers 480
distressed 480
ha 480
adua 480
bookstore 480
methodist 480
militancy 480
succeeding 480
bantamweight 480
dundee 479
manifesto 479
spiked 479
vulnerability 479
detentions 479
evander 479
tashkent 479
hit-and-run 479
anti-poverty 479
siblings 479
footsteps 479
clarification 479
porter 479
supersonic 479
federally 479
schoolgirls 479
argentinian 479
achilles 479
multi-billion-dollar 479
emergence 478
abul 478
assailant 478
injections 478
refund 478
qorei 478
involves 478
donating 478
argues 478
periods 478
clip 478
batter 478
diagnosis 478
disturbed 477
stephane 477
startup 477
danced 477
centres 477
contacted 477
cremated 477
refer 477
disarmed 477
spoiled 477
sergey 477
allocation 476
criticisms 476
swearing-in 476
laotian 476
unleash 476
fijian 476
hitter 476
federations 476
casual 476
alexandre 476
clerical 476
harboring 476
courtney 476
darryl 476
gras 476
kickoff 476
lashing 476
vodka 476
dynamics 475
reformer 475
hungarians 475
airmen 475
convertible 475
cups 475
supplements 475
skins 475
airfield 475
punched 475
blasphemy 475
motel 475
beset 475
jana 475
impassioned 475
generator 474
portions 474
explained 474
malpractice 474
halved 474
bowled 474
finley 474
prairie 474
olga 474
balladur 474
jetliners 474
sails 474
arantxa 474
upwards 474
buries 474
providence 474
assertion 474
biggest-ever 474
moses 474
snowy 474
icons 474
tablets 473
nine-day 473
underwear 473
gabonese 473
twisted 473
malian 473
reelected 473
seven-day 473
lopsided 473
manages 473
canon 473
reefs 472
finns 472
shuttered 472
skid 472
deterrent 472
implants 472
pastrana 472
capitalize 472
galileo 472
congratulatory 472
analyze 472
guadalajara 472
prosecuting 472
pie 472
identical 472
abducting 472
bandit 472
famer 472
#d 472
rehabilitate 472
frenzied 472
hunts 472
updated 472
descendants 471
bessonette 471
sabena 471
pacquiao 471
edouard 471
akayev 471
foothold 471
sorts 471
vets 471
assassinations 471
fenerbahce 471
graphics 471
hinting 470
oasis 470
corey 470
recreation 470
cruzeiro 470
grappling 470
crimean 470
hantuchova 470
incredible 470
alternate 470
butt 470
ronnie 470
softening 470
objection 470
spinoff 470
remarkably 470
amgen 470
automatically 469
intentionally 469
impeach 469
malaga 469
helpful 469
premiers 469
medications 469
exert 469
peanut 469
oak 469
four-year-old 469
overrun 469
embracing 469
soliciting 469
retarded 468
mathieu 468
gronholm 468
closings 468
mich. 468
soprano 468
wrath 468
barber 468
mobster 468
mick 468
healthier 468
tussle 468
swamped 468
parachute 468
jagr 468
unionist 468
bhutanese 468
antique 468
coors 468
blockaded 468
chevrolet 468
autocratic 468
tempered 468
#.#-# 468
renminbi 467
chanted 467
curator 467
educate 467
paths 467
ignite 467
slavonia 467
graphic 467
autos 467
vicario 467
tapping 467
perception 467
understands 466
reproductive 466
paddy 466
#rd-quarter 466
blowout 466
caf 466
skilling 466
odi 466
fiasco 466
payout 466
soes 466
franks 466
beam 466
malfunction 466
wong 466
necessity 466
eden 466
sounding 466
zealander 466
surfing 465
cane 465
restores 465
harmed 465
reeves 465
ase 465
quantities 465
jake 465
gam 465
villaraigosa 465
scary 465
jaime 465
exhibitions 465
perfectly 465
butter 465
beshir 465
reyes 465
ex-minister 465
defection 465
whenever 465
chefs 465
expatriate 465
altogether 464
underlining 464
woolmer 464
brains 464
requesting 464
oleg 464
clintons 464
baseless 464
discredit 464
outrageous 464
erekat 464
axed 464
yomiuri 464
overtake 464
communion 464
carlsberg 464
disk 464
abbey 464
processor 464
encounters 463
bribing 463
imaging 463
unwilling 463
spells 463
tucson 463
boulevard 463
gentle 463
wim 463
objectives 463
occasional 463
kiwi 463
dubious 463
schnyder 463
samarra 463
contesting 463
artery 463
gascoigne 463
dynamite 463
orphanage 463
embarks 463
machinists 463
drags 462
flavor 462
assistants 462
assassins 462
glut 462
frontrunner 462
honeywell 462
catalan 462
spider-man 462
cub 462
turk 462
richie 462
methamphetamine 462
gigantic 462
skipping 462
aeroflot 462
duval 462
safari 462
amends 462
cablevision 462
knot 462
newton 461
rebukes 461
weddings 461
fur 461
trunk 461
b.c. 461
personalities 461
adoptions 461
offsetting 461
lukas 461
textbooks 461
bombarded 461
mcenroe 461
beatings 460
tallahassee 460
lehmann 460
trims 460
memoirs 460
niche 460
fe 460
comfortably 460
coincide 460
heiress 460
falters 459
collaborate 459
vernon 459
combatting 459
grades 459
shotgun 459
practiced 459
swazi 459
curse 459
airlifted 459
fringe 459
gravely 459
lars 459
berry 459
ctk 459
liang 459
spied 459
hastert 459
navratilova 459
treacherous 459
gitmo 459
promotions 459
airman 459
contestants 459
trustee 459
laughs 459
packs 459
specially 459
redemption 459
mofaz 459
hindering 459
soap 459
shelved 459
fiancee 459
depths 458
enlisted 458
surface-to-air 458
vague 458
four-hour 458
keating 458
historically 458
anti-tank 458
relinquish 458
irina 458
erbakan 458
adhere 458
eastwood 458
clashing 458
nassau 458
waziristan 457
evangelist 457
councilman 457
exclusively 457
wozniacki 457
t-shirt 457
hasty 457
minimal 457
compassion 457
remittances 457
u## 457
vale 457
sizzling 457
irvin 457
steadied 457
boerse 457
crossroads 456
sainz 456
dravid 456
naples 456
massimo 456
batters 456
decried 456
narrowing 456
wondered 456
tariq 456
mid-afternoon 456
traced 456
rodrigo 456
initiate 456
aliyev 456
barbaric 456
infiltrated 456
rbis 456
drafts 456
lamar 456
contraband 456
nationalize 456
gnassingbe 456
mousavi 455
generators 455
co-defendants 455
worm 455
alpha 455
brodeur 455
safeguarding 455
ideology 455
believers 455
cao 455
courtesy 455
gennady 455
malacca 455
entities 454
swamp 454
airbase 454
skaters 454
###-mile 454
bowls 454
biofuels 454
aquarium 454
mans 454
warmly 454
cac 454
flu-like 454
prevailing 454
practically 454
naturalization 454
prey 454
looters 454
#x###m 454
subsequent 454
patron 454
pre-emptive 454
epicenter 453
tucked 453
countering 453
indebted 453
shrines 453
lukewarm 453
lags 453
pelted 453
tax-cut 453
headscarf 453
swinging 453
constituency 453
brother-in-law 453
nationalization 453
applause 453
everglades 453
picturesque 453
reparations 453
quo 453
motorbike 453
ripe 453
terminally 453
barbs 453
guaranteeing 453
takeovers 452
a###m 452
stone-throwing 452
cosby 452
uttar 452
long-haul 452
iditarod 452
haile 452
lamented 452
emphasizes 452
dominik 452
dc 452
precision 452
mesa 452
ranger 452
forceful 452
life-threatening 452
perks 452
salutes 452
jew 452
constituent 452
minister-elect 451
reorganize 451
footwear 451
surfers 451
intimate 451
gestures 451
constructed 451
appliances 451
vibrant 451
creatures 451
two-shot 451
prohibiting 451
glittering 451
maddux 451
accessible 451
dolphin 451
reap 450
marble 450
conclusions 450
sin 450
unravel 450
recorders 450
vandalized 450
berezovsky 450
thinner 450
bahadur 450
infiltrate 450
privatized 450
abolition 450
eiffel 450
jfk 450
crying 450
d-day 450
believing 449
medellin 449
luo 449
waved 449
weber 449
cellphone 449
enlarged 449
donna 449
leafs 449
rebate 449
nabisco 449
moe 449
kaiserslautern 449
objected 448
refiner 448
exaggerated 448
anybody 448
distributors 448
invalid 448
johnston 448
beefs 448
ll 448
hertha 448
alarms 448
videotaped 448
one-week 448
botafogo 448
projection 447
tricky 447
karaoke 447
jin 447
slumdog 447
styles 447
paints 447
bakili 447
imelda 447
migratory 447
conserve 447
confrontations 447
westchester 447
geophysics 447
rowdy 447
glamorous 447
equals 446
exposes 446
infosys 446
stellar 446
aum 446
evade 446
kwacha 446
post-soviet 446
tepid 446
garner 446
expulsions 446
cec 446
coupled 446
hubert 446
darwin 446
executing 446
ahtisaari 446
abduct 446
procedural 446
maskhadov 446
overtures 446
purse 446
markus 446
isaac 445
remedy 445
nukes 445
confucius 445
scarves 445
portray 445
seamen 445
suite 445
consumed 445
rubles 445
echoes 445
searing 445
nervously 445
churned 445
registry 445
watchdogs 445
openers 445
however 445
kathleen 445
confiscate 445
relocated 445
abolished 445
ponzi 445
totalling 445
natalie 444
undated 444
loophole 444
bearish 444
crept 444
tampering 444
willis 444
dissatisfaction 444
purdue 444
all-china 444
congregation 444
inbev 444
somaliland 444
fried 444
clearer 444
dresden 444
flick 443
lvmh 443
bros. 443
dudayev 443
texan 443
ferries 443
literacy 443
chaired 443
beard 443
aikman 443
noel 443
axis 443
zairian 443
farther 443
big-ticket 443
waiver 443
idf 443
crushes 443
palme 442
sprewell 442
hurd 442
pornographic 442
hastily 442
consciousness 442
births 442
regimes 442
militiaman 442
enel 442
emmanuel 442
zhirinovsky 442
brooke 442
rained 442
scorecard 442
three-stroke 442
bystanders 442
jetblue 442
mccall 441
colonies 441
deferred 441
reflection 441
accomplices 441
hilltop 441
leases 441
tremor 441
tuzla 441
tvs 441
matsushita 441
sven 441
hebrew 441
#-for-# 441
bjorkman 441
deprived 441
marchers 441
tusk 441
cheats 441
relation 441
puzzle 441
law-enforcement 440
dunn 440
steals 440
youthful 440
overshadow 440
magical 440
norton 440
screenwriter 440
succeeds 440
financials 440
mega 440
stupid 440
criticising 440
patterson 440
breakthroughs 440
frist 440
server 440
clue 440
grachev 440
gheit 439
unfinished 439
deadlines 439
edberg 439
garments 439
beacon 439
primera 439
decades-long 439
magnitude-# 439
crammed 439
scorching 439
biofuel 439
gunning 439
tenders 439
ex-communist 439
luring 439
government-owned 439
sakhalin 439
first-class 439
shelf 439
vacancy 439
championed 439
xiaobo 439
lyrics 439
###km 438
overloaded 438
santo 438
cheated 438
download 438
razak 438
anderlecht 438
enqvist 438
jurgen 438
infusion 438
wishing 438
shrug 438
simmons 438
windies 438
brutally 438
zayed 438
referring 438
waived 438
shwe 438
treasurys 438
hardship 438
appliance 438
suzhou 438
starred 438
triple-a 437
high-technology 437
jinping 437
flattened 437
heroine 437
firemen 437
arenas 437
hobart 437
triples 437
spitting 437
gossip 437
thermal 437
vastly 437
refined 437
kaliningrad 437
bloodbath 437
oao 437
seinfeld 437
kin 437
bailouts 437
choir 437
petacchi 436
circulating 436
unsolved 436
alcoholic 436
rusty 436
ex-dictator 436
salam 436
bakar 436
pier 436
tina 436
staple 436
joachim 436
breezed 436
liftoff 436
cinemas 436
defer 436
dresdner 435
sponsoring 435
unabomber 435
mossad 435
bilingual 435
ebadi 435
scarce 435
fetus 435
last-place 435
high-flying 435
shaft 435
sprinters 435
war-era 435
rocking 435
upstart 435
mit 434
gucci 434
fuji 434
harrowing 434
writings 434
tuneup 434
masse 434
rubens 434
el-sheikh 434
armitage 434
drug-trafficking 434
boomers 434
small-town 434
unlicensed 434
precautionary 433
stifle 433
areva 433
upside 433
famously 433
explorers 433
inspecting 433
emily 433
anti-personnel 433
chu 433
reinsurance 433
cooler 433
mig-## 433
converge 433
hiked 433
dreamliner 433
fundamentals 433
fist 433
closet 433
irl 432
sums 432
#st-half 432
mausoleum 432
eminem 432
jubilee 432
spraying 432
ramos-horta 432
asteroid 432
coping 432
beth 432
grey 432
intrigue 432
leapt 432
inroads 432
saeb 432
armando 432
stumbles 432
portrayal 432
butcher 432
inkatha 432
yosemite 432
swelled 432
conquer 432
left-leaning 431
hypo 431
foreigner 431
kurmanbek 431
##-kilogram 431
functioning 431
restrictive 431
eroding 431
revelation 431
announcements 431
sgt. 431
spokesmen 431
chuan 431
moroccans 431
rehnquist 431
readings 430
harriet 430
accompanying 430
mistress 430
absurd 430
bc-eu-gen 430
scares 430
echoed 430
input 430
paved 430
smes 430
glitches 430
socialism 430
multiyear 430
huber 430
prodigy 430
world-famous 429
askar 429
heralded 429
detonate 429
castroneves 429
exploratory 429
baldwin 429
postelection 429
feng 429
polluters 429
lawlessness 429
impetus 429
quicker 429
maltese 429
shalom 429
digs 429
squabbling 429
combative 429
garang 429
sino-u.s. 429
hooker 429
piling 429
tremendous 429
advancement 428
woos 428
biscayne 428
andes 428
euphoria 428
##b 428
unfolding 428
mayweather 428
rosy 428
shea 428
derrick 428
synthetic 428
lifelong 428
deforestation 428
incidence 428
bavarian 428
renovate 428
cabrera 428
hasan 428
j 428
sung 428
dioxin 428
hansen 428
houllier 428
suppression 427
astra 427
genre 427
electorate 427
repsol 427
deepwater 427
kickback 427
adequately 427
giorgio 427
muttiah 427
adjacent 427
quashed 427
ruthless 427
evacuates 427
osasuna 427
impress 427
take-off 427
atoll 427
courting 427
cunningham 426
french-speaking 426
bumpy 426
larger-than-expected 426
symington 426
intifada 426
durham 426
iyad 426
colored 426
laureates 426
discriminatory 426
macarthur 426
third-place 426
long-stalled 426
circumcision 425
lively 425
grounding 425
trophies 425
o'donnell 425
centre-left 425
r&amp;b 425
hackett 425
lid 425
playground 425
trove 425
boulder 425
charette 425
umaru 425
over-the-counter 425
garuda 425
#-week 425
cripple 425
mailed 425
punk 425
ledger 425
hau 424
feisty 424
batman 424
rousing 424
dutroux 424
contemplating 424
encephalitis 424
basilica 424
husbands 424
heather 424
alicia 424
withstand 424
stagnant 424
non-stop 424
biologists 424
twenty-one 424
schuster 424
scant 424
tasmania 424
embryo 424
rivaldo 424
clinging 424
pared 424
woke 424
germ 424
sleepy 424
acer 424
braved 424
terrorized 424
disgrace 423
midland 423
tnt 423
rowling 423
berisha 423
beckett 423
saparmurat 423
fancy 423
citrus 423
weightlifter 423
eto'o 423
kadima 423
scanners 423
fightback 423
camel 423
affluent 423
second-place 423
industrie 423
democracies 422
sculptures 422
orchestrating 422
matsu 422
basically 422
falter 422
dario 422
blog 422
ayala 422
a-share 422
torpedo 422
pro-palestinian 422
fastest-growing 422
suarez 422
andhra 422
lexus 422
tevez 422
faked 422
liangyu 422
alfonso 422
soekarnoputri 421
visions 421
###-day 421
gadgets 421
ferenc 421
molested 421
multiparty 421
antiques 421
spratly 421
##-story 421
klerk 421
myth 421
inc 421
protectionist 421
ante 420
bellwether 420
sept 420
rhythm 420
mas 420
bamboo 420
goat 420
tesco 420
sludge 420
ample 420
cruising 420
imposition 420
somehow 420
mozart 420
positioned 420
getafe 420
steeplechase 419
demarcation 419
mottaki 419
unfounded 419
discounted 419
perilous 419
scuffled 419
thrilled 419
shaped 419
sparkling 419
toast 419
kirch 419
boyd 419
kyodo 419
gale 419
wracked 418
annulled 418
jockeys 418
sv 418
uc 418
modify 418
usda 418
trickle 418
#th-quarter 418
reggae 418
nonproliferation 418
divine 418
unocal 418
mikheil 418
nina 418
spanish-language 418
crusader 418
ultra-nationalist 418
itt 418
u.n.-backed 418
bellamy 418
handlers 418
vacations 417
portraying 417
beck 417
baku 417
blanketed 417
clarence 417
reassuring 417
scuttle 417
all-rounder 417
hurling 417
commemorations 417
freshmen 417
angop 417
lanes 417
phillip 417
frederic 416
money-losing 416
marin 416
tucker 416
three-match 416
[...]
